t h
th e</w>
i n
a n
e d</w>
e r
a r
r e
e r</w>
t i
an d</w>
e n
o n
o f</w>
i n</w>
o r
o u
o n</w>
in g</w>
a l
s t
t o</w>
a s</w>
i t
r o
h i
a t
e s</w>
a t</w>
a c
e l
a n</w>
o r</w>
h e</w>
r i
s i
l i
a l</w>
w as</w>
a s
e n</w>
o m
d i
a m
i s</w>
e c
u r
l y</w>
c h
l e
s t</w>
l o
u n
a ti
i l
h a
o l
d e
i t</w>
b e
s e
l e</w>
n o
f or</w>
v e</w>
i c
w h
a g
w it
th e
a d
th at</w>
wit h</w>
n e
en t</w>
b u
hi s</w>
er e</w>
i r
i s
r a
s u
e m
' s</w>
g h
c h</w>
p o
c on
1 9
b y</w>
en t
l a
s e</w>
c om
ou n
v er
p ro
s p
c e</w>
a b
s h
f or
h er</w>
ati on</w>
f ro
o o
m o
fro m</w>
2 0
m a
er s</w>
v i
o p
a p
s he</w>
t ed</w>
o w
t h</w>
m e</w>
ti on</w>
e a
y o
t s</w>
e x
r u
e s
on e</w>
yo u</w>
p ar
th er</w>
a u
t er</w>
l d</w>
q u
ou t</w>
a y</w>
al l</w>
v er</w>
u l
ar e</w>
d s</w>
c i
ha d</w>
it y</w>
on s</w>
l u
p re
t er
w hi
b e</w>
k e</w>
w or
gh t</w>
at e</w>
s o</w>
w e
d u
in g
w ere</w>
bu t</w>
a i
c o
e ar
d e</w>
b o
m e
at ed</w>
f f
m y</w>
p er
d ed</w>
t r
th is</w>
m an
t o
t a
ou ld</w>
m ar
d ing</w>
' t</w>
am e</w>
a r</w>
g r
g h</w>
a f
f i
g u
al ly</w>
g e
i m
g o
p l
no t</w>
s c
s ed</w>
b er</w>
f e
s er
p e
p u
t ur
f ir
re c
the y</w>
20 1
g e</w>
whi ch</w>
l ed</w>
g i
ha ve</w>
i r</w>
d o
d er</w>
h o
k ing</w>
k ed</w>
in e</w>
m u
hi m</w>
ac k</w>
j u
ou r
ag e</w>
u p</w>
it s</w>
v ed</w>
20 0
p or
in c
ar y</w>
t y</w>
ar d</w>
t w
t e
m i
oun d</w>
s om
t ing</w>
s s</w>
d er
s o
on al</w>
on g</w>
m or
ou gh</w>
ou r</w>
m in
k e
m ent</w>
ow n</w>
al so</w>
the ir</w>
e v
h as</w>
an t</w>
n i
si on</w>
fir st</w>
as t</w>
el l</w>
s ti
al i
o ther</w>
ne w</w>
p la
w ay</w>
s hi
wh o</w>
k s</w>
c ol
ac e</w>
k no
f in
r an
be en</w>
u m
u s</w>
a y
wh en</w>
af ter</w>
e l</w>
j o
th ere</w>
lo w
b ec
w i
in to</w>
n ed</w>
com m
for m
or i
g re
s ec
c ar
ti me</w>
ent s</w>
p i
du c
t e</w>
o c
st r
ai d</w>
a d</w>
t en
com p
an d
s ch
ri c
c oun
w ould</w>
t u
p p
a v
ou s</w>
s el
1 8
m il
en ce</w>
ag a
tw o</w>
m an</w>
lo o
wh at</w>
ti c
em ber</w>
e t</w>
mor e</w>
s aid</w>
w il
ad e</w>
c an</w>
ab out</w>
el y</w>
s on</w>
in ter
m on
un i
ab le</w>
o ver</w>
s ur
ic e</w>
th en</w>
con t
p ri
w e</w>
e p
n or
n ati
th ing</w>
s h</w>
l l</w>
lo c
at er</w>
n o</w>
f u
g en
b i
r e</w>
ol d</w>
l and</w>
li ke</w>
b ack</w>
it e</w>
b er
al l
b r
t ra
h e
sp ec
i es</w>
i f</w>
d ec
c hi
c ent
pre s
ea r</w>
re n
inc lu
l an
si g
b or
en g
d n</w>
c or
on ly</w>
s y
or y</w>
h el
pla y
oo d</w>
o ff
the m</w>
19 9
d o</w>
e st
th r
b ro
t ri
l es</w>
at es</w>
v ing</w>
ing s</w>
ati ons</w>
wh ere</w>
be t
n ing</w>
p h
st u
re e</w>
p s</w>
an g
f il
as ed</w>
mo st</w>
it ed</w>
b li
w n</w>
an y</w>
s in
d ur
st ar
a m</w>
b ri
ti ons</w>
si de</w>
an ce</w>
ar i
ear s</w>
ac h</w>
s ing</w>
at t
oo k</w>
som e</w>
s es</w>
st e
s ou
for e</w>
o f
c ould</w>
es s</w>
ac h
c l
h ea
d ay</w>
w ar
ju st</w>
d on</w>
c u
e i
in ed</w>
pu bli
g ra
am i
as e</w>
s a
h ou
e d
f t</w>
th an</w>
s m
c re
ch ar
ap p
al s</w>
dur ing</w>
nati onal</w>
f ol
b el
v el
be fore</w>
oo l</w>
0 0</w>
ti es</w>
th er
re s</w>
f a
an s</w>
m ade</w>
di st
no w</w>
e ver</w>
thr ough</w>
en ti
t on</w>
an i
ver y</w>
b l
r y</w>
c a
am er
v es</w>
som e
l ar
ay s</w>
r ed</w>
m at
bu il
t ly</w>
d own</w>
w ell</w>
d y</w>
en d</w>
shi p</w>
s k
ma y</w>
c an
19 8
y ears</w>
e y
f ac
or s</w>
v o
m s</w>
whi le</w>
c al
in s</w>
sch ool</w>
ur e</w>
st s</w>
on d</w>
il l
man y</w>
st er</w>
el l
g a
we en</w>
ver s
d re
p ul
di s
h ar
bet ween</w>
p r
b le</w>
so ci
th o
f e</w>
st ru
st er
amer ic
c lo
a ir
u e</w>
' d</w>
u m</w>
at ing</w>
wor ld</w>
c es</w>
b ar
c ur
as on</w>
m is
wil l</w>
an n
b re
in di
ti ve</w>
om e</w>
ar e
u sed</w>
po in
wor k</w>
c ap
t le</w>
ge t</w>
r it
su b
on g
t en</w>
l ater</w>
hea d</w>
f ami
po li
sel f</w>
di d</w>
sh ed</w>
el ec
19 7
fol low
a k
ar ound</w>
w in
wi th
ec t</w>
th ree</w>
h u
pro duc
sh o
c ity</w>
em p
y ing</w>
be g
y ear</w>
si d
t or</w>
i c</w>
es s
be ing</w>
pe op
un der</w>
re le
su ch</w>
kno w</w>
f er
kno wn</w>
au se</w>
ic i
ser v
ev en</w>
ou ght</w>
aga in
b ur
e st</w>
peop le</w>
s si
again st</w>
n am
g o</w>
st ed</w>
t re
y our</w>
tur e</w>
ti m
c ed</w>
par t</w>
p en
c lu
ho w</w>
n um
c k</w>
bo th</w>
st ate</w>
at h</w>
f re
tr an
em ent</w>
l it
di rec
lo w</w>
w al
h an
of f</w>
the se</w>
gen er
th ough</w>
in v
f l
ti c</w>
uni vers
f o
d r
un ti
c our
as s</w>
rec or
v e
me di
er ed</w>
lo g
19 6
s ing
ou l
is h</w>
unti l</w>
ai r</w>
h er
o m</w>
t ro
gr ou
c er
di dn</w>
am p
z ed</w>
sec ond</w>
g er
mu si
ea m</w>
p ic
s en
l ing</w>
se e</w>
ri ght</w>
e u
p a
f r
b a
m em
t t
bor n</w>
univers ity</w>
bec ause</w>
n er</w>
z e</w>
go ver
h ow
v en</w>
t ow
hou se</w>
sti ll</w>
n ame</w>
bec ame</w>
t eam</w>
se ason</w>
sin ce</w>
un ited</w>
. .</w>
su p
w om
in k</w>
st re
t y
la r</w>
d en
w s</w>
g in
c ro
aga in</w>
w a
fu l</w>
is h
b all</w>
fami ly</w>
al e</w>
h ol
fil m</w>
o b
w ard</w>
i a</w>
f ri
stru c
. ..</w>
d a
ey es</w>
l ine</w>
t ook</w>
americ an</w>
t ec
spec i
hi st
vi e
s ol
pl ace</w>
b ed</w>
op er
por t</w>
f ran
c c
19 4
e p</w>
ou t
vi sion</w>
f ul
s ha
ac k
w ar</w>
gover n
t ru
no v
p e</w>
f oo
e -
inclu ding</w>
w rit
di ff
h ere</w>
tur ned</w>
de vel
st ates</w>
go ing</w>
as h
ac t</w>
st an
per i
p hi
f ace</w>
al bu
le y</w>
su l
an y
li fe</w>
g ar
how ever</w>
l ong</w>
' m</w>
en ed</w>
ic al</w>
? ?
ou s
se ver
mu ch</w>
sou th</w>
jo h
19 5
cal led</w>
am es</w>
e ach</w>
hi gh
com e</w>
re gi
we st</w>
tr y</w>
as si
f ound</w>
s ame</w>
cont in
a way</w>
d el
ati ve</w>
w an
con si
un der
in ing</w>
h ear
ch am
c ri
in d</w>
an other</w>
t ers</w>
ch ed</w>
comp le
f ic
d es</w>
b an
ti v
f el
c le
as s
c y</w>
w on</w>
re l
are a</w>
li c
hi gh</w>
j e
t al
d en</w>
po w
sc ri
le t</w>
s w
devel op
grou p</w>
c al</w>
t own</w>
c r
or g
pp ed</w>
m p
pl ac
dist ric
sever al</w>
re ad
j an
n a
ta in</w>
j un
l in
le ft</w>
v al
po si
h and</w>
min i
ex p
follow ing</w>
ma ke</w>
i d</w>
h ome</w>
d ar
se t</w>
g ed</w>
h al
ne ver</w>
ch an
ro om</w>
c la
ta ke</w>
to o</w>
ser ies</w>
c k
v ic
de sig
e k</w>
n s</w>
se p
d ge</w>
w at
b ru
u p
comp any</w>
nor th</w>
l ast</w>
v en
albu m</w>
ent ly</w>
m en</w>
fi el
num ber</w>
or e</w>
g ro
0 s</w>
musi c</w>
f our</w>
ag ue</w>
rele ased</w>
beg an</w>
f un
ec ted</w>
sti tu
tim es</w>
ri ed</w>
u se</w>
play ed</w>
ur y</w>
publi c</w>
su m
el e
in a</w>
hel d</w>
d ra
g ood</w>
b and</w>
for m</w>
f oun
ori gin
am s</w>
g ame</w>
w ant</w>
m er
b il
rec ei
in i
c ep
su cc
1 7
m ember</w>
ear ly</w>
mi d
le ad
distric t</w>
ster n</w>
app ear
tho se</w>
or t</w>
19 3
qu i
lit tle</w>
le g
in e
, 0
coun ty</w>
d ri
t es</w>
g l
b ers</w>
po pul
h un
ma j
pro f
t a</w>
pl an
le ague</w>
th ink</w>
i l</w>
' re</w>
st ri
v ari
o ver
g er</w>
c ame</w>
foo t
k en</w>
ch ur
th ir
sur e</w>
li ght</w>
oul dn</w>
l s</w>
cham pi
t or
bo dy</w>
di ed</w>
w ent</w>
fe at
por t
loo ked</w>
p ed</w>
1 0</w>
pro vi
p al
re ma
k o
as ked</w>
diff er
some thing</w>
sm all</w>
tic al</w>
le ss</w>
th ought</w>
mo ved</w>
govern ment</w>
y s</w>
pres ent
ad v
c ul
der ed</w>
d a</w>
al ong</w>
be st</w>
col le
st o
p ur
v ill
p ol
ni ght</w>
fa ther</w>
sp on
ser ved</w>
contin u
fo re
s qu
s ci
e ver
st ation</w>
s li
chi l
comm un
b ased</w>
ap pro
ne x
ch o
joh n</w>
go t</w>
s .</w>
co ver
w ays</w>
loc ated</w>
d ro
fe w</w>
ag es</w>
au gu
se ar
v ol
d ent</w>
t al</w>
ch ri
clu b</w>
on i
n ec
n at
par t
li m
ti sh</w>
di tion</w>
y or
w ater</w>
gh ts</w>
pro b
k es</w>
r un
fr on
mar ch</w>
ro ad</w>
p at
c e
dec i
w as
gener al</w>
s al
th ers</w>
,0 00</w>
sep t
ti onal</w>
cont ro
sept ember</w>
t -
do or</w>
k i
nex t</w>
u ary</w>
jun e</w>
sho w</w>
s s
at s</w>
in st
e f
h or
pre sid
in f
ar ds</w>
fiel d</w>
19 2
b as
ste m</w>
k er</w>
form ed</w>
ke t</w>
loo k</w>
tran s
si l
d ers</w>
h y
jan uary</w>
b en
st ing</w>
k il
ju ly</w>
li on</w>
log y</w>
colle ge</w>
chur ch</w>
ri l</w>
ne ss</w>
w ing</w>
oc to
is ed</w>
ha pp
nam ed</w>
e ty</w>
octo ber</w>
eu ro
it al</w>
c au
augu st</w>
form er</w>
cur ren
par ty</w>
buil ding</w>
y oun
g ir
e ast</w>
m y
tr ac
com pe
st a
v ir
man ag
ever y
di o</w>
si s</w>
e f</w>
as soci
ther n</w>
inter national</w>
on -
e very</w>
is e</w>
m er</w>
ap ril</w>
m ents</w>
star ted</w>
with in</w>
b ook</w>
sy stem</w>
s it
' ll</w>
on ed</w>
ar ly</w>
c ra
i g
l a</w>
p er</w>
re sul
li es</w>
popul ation</w>
ch es</w>
ar t</w>
on ce</w>
s an
at ely</w>
ri ver</w>
ne w
t ting</w>
with out</w>
fi ve</w>
de f
wh y</w>
wom en</w>
e g
bel i
buil t</w>
n e</w>
fi ed</w>
ous ly</w>
t able</w>
1 8</w>
pr in
car e
yor k</w>
cent ury</w>
c am
to p</w>
s ong</w>
a th
cent r
1 0
nov ember</w>
lar ge</w>
ma y
b ra
ch e
p le
ab li
hi m
1 6
201 0</w>
l y
he ad
l er</w>
at ten
e duc
ti ci
dec ember</w>
est abli
h on
au str
re g
tur n</w>
sh ould</w>
o s</w>
1 2</w>
f ur
s co
re spon
was n</w>
p t</w>
du e</w>
ach ed</w>
d ow
ne ed</w>
s ay</w>
pu t</w>
m al
d -
read y</w>
u s
v el</w>
i m</w>
e t
2 0</w>
wan ted</w>
al though</w>
austr ali
or der</w>
k new</w>
sa w</w>
b s</w>
loc al</w>
b al
de ath</w>
dre n</w>
p as
chil dren</w>
m ed</w>
ar ti
po sed</w>
c at
gre at</w>
to ge
si ons</w>
bri tish</w>
fin al</w>
be h
op en</w>
tec h
ic k</w>
an a</w>
toge ther</w>
lo ve</w>
m ul
j ect</w>
s ite</w>
ch a
i i</w>
bl ack</w>
ou th</w>
r ing</w>
s mil
201 1</w>
b oo
au th
en s</w>
e y</w>
c as
si ve</w>
org ani
fel t</w>
ro y
vill age</w>
recei ved</w>
e ff
foot ball</w>
ro ss</w>
sh ow
ir e</w>
pla y</w>
n a</w>
an ts</w>
1 5</w>
bu sin
wh ite</w>
l on
s po
m un
ish ed</w>
poin t</w>
posi tion</w>
mem bers</w>
m ent
serv ice</w>
de scri
1 5
ch ang
er ing</w>
beh ind</w>
en ing</w>
d om
char ac
b att
fron t</w>
ac cor
ma in</w>
differ ent</w>
him self</w>
201 2</w>
d ays</w>
m oun
fe bru
la u
champi on
febru ary</w>
la w</w>
gr ad
sing le</w>
ha ving</w>
d in
mo ther</w>
maj or</w>
presid ent</w>
v in
a z
col l
or ed</w>
l ate</w>
pow er</w>
en d
m ag
ur ed</w>
u al</w>
ab ly</w>
di c
g ames</w>
s on
er i
a ff
inclu de</w>
r ac
d on
at or</w>
ec ts</w>
s we
is m</w>
vo ice</w>
f lo
hel p</w>
gr ound</w>
spec ies</w>
t old</w>
200 9</w>
inc re
thir d</w>
c y
200 8</w>
le a
han ds</w>
for d</w>
h um
- -</w>
in de
th s</w>
sear ch</w>
1 1</w>
201 3</w>
m a</w>
d ou
bo ard</w>
b ir
t t</w>
ne ar</w>
t ou
d am
po ssi
re li
g g
201 4</w>
wil li
par k</w>
ac ross</w>
do c
e se</w>
f ar
es si
a war
u res</w>
publi shed</w>
on es</w>
t om
' ve</w>
ic es</w>
on om
li sh</w>
b lu
a h</w>
gh ter</w>
v is
re ally</w>
th re
con struc
ne y</w>
ic k
t ell</w>
of ten</w>
a k</w>
hist ory</w>
s our
m om
ar my</w>
ou gh
op ened</w>
t an
a de
k a</w>
ge or
ch ing</w>
1 4</w>
fin d</w>
off ici
3 0</w>
f f</w>
201 5</w>
h en
stu d
i d
200 6</w>
ga ve</w>
is su
i ght</w>
coun try</w>
stre et</w>
accor ding</w>
1 6</w>
em s</w>
f ren
ra il
ma king</w>
en ough</w>
gi ven</w>
200 7</w>
y m
l ong
re present
plac ed</w>
lo t</w>
st ra
ke y</w>
di vision</w>
am ong</w>
ir ed</w>
sc re
c ar</w>
sig ned</w>
i de
ma in
ab o
vie w</w>
ge st</w>
h op
y -
p le</w>
ti on
inclu ded</w>
in t</w>
al ity</w>
min u
form ation</w>
se en</w>
i li
ati c</w>
ru n</w>
v il
re por
ur al</w>
cent er</w>
u sing</w>
19 0
in es</w>
ri bu
lo y
c ou
mi ght</w>
di es</w>
ci al</w>
wom an</w>
se qu
an t
ad a</w>
l at
il ity</w>
origin al</w>
ber t</w>
youn g</w>
el s</w>
th ro
st y
our s</w>
1 3</w>
c ir
peri o
c ess</w>
1 7</w>
shi ps</w>
lo st</w>
ne e
off ice</w>
z ation</w>
de sp
201 6</w>
wor ks</w>
centr al</w>
t ex
m ur
im port
m en
o k
st at
p ho
continu ed</w>
ing ton</w>
cour t</w>
mu st</w>
in stitu
fren ch</w>
f le
tic s</w>
ac ti
si x</w>
u .
m b
t ele
eng lish</w>
c ouldn</w>
mil lion</w>
al most</w>
h om
chan ge</w>
we stern</w>
b b
bec ome</w>
t ors</w>
ar ch
n u
all s</w>
il ed</w>
s or
qu e
al ways</w>
li ve</w>
c o</w>
sp or
busin ess</w>
mini str
en ces</w>
do m</w>
sh ar
u ally</w>
h am
n er
appear ed</w>
li st</w>
f em
u su
th ings</w>
c op
ann oun
develop ment</w>
gi ve</w>
ini ti
ci l</w>
lan gu
commun ity</w>
2 5</w>
j ap
b loo
for ce</w>
it ary</w>
wor ked</w>
ori es</w>
qu ar
su s</w>
b ran
in du
ful ly</w>
on y</w>
st on</w>
it ing</w>
al low
ha m</w>
f er</w>
g ri
qu e</w>
no thing</w>
c ase</w>
inv ol
h ur
in ten
it h</w>
fi c</w>
bet ter</w>
l ou
ag o</w>
any thing</w>
care er</w>
en ds</w>
beli e
coun cil</w>
clo se</w>
pre vi
p an
mar y</w>
s un
a w
t ar
ec tion</w>
p au
c up</w>
ea d</w>
hal f</w>
ex ten
lon don</w>
s sed</w>
re turned</w>
d ly</w>
j a</w>
ol s</w>
is land</w>
18 9
en ded</w>
w in</w>
poin ted</w>
in side</w>
l l
fe der
we e
o thers</w>
af ric
u. s.</w>
stud ents</w>
st ory</w>
con cer
i gh
fir e</w>
1 9</w>
mar ried</w>
se e
d an
po s
re qu
fe el</w>
ru ssi
do es</w>
d au
ol e</w>
n al</w>
i an</w>
establi shed</w>
ger man</w>
loo king</w>
contro l</w>
cover ed</w>
recor d</w>
m c
re search</w>
re co
play er</w>
sup port</w>
s an</w>
n y</w>
er y</w>
h ard</w>
ac tion</w>
201 7</w>
lan ds</w>
de part
f ar</w>
al ready</w>
sp e
ta ken</w>
wor king</w>
m ing</w>
f our
gra m</w>
d ate</w>
c le</w>
sec re
le vel</w>
ti tle</w>
se tt
a il
comm it
cl ass</w>
bi g</w>
so on</w>
at a</w>
re st
ex i
c amp
min d</w>
he al
mil itary</w>
st op
ke ep</w>
ac ade
jo ined</w>
vari ous</w>
mo der
regi on</w>
an ti
re st</w>
succ ess
educ ation</w>
f ree</w>
am a</w>
l or
li ving</w>
writ ten</w>
r a</w>
ni a</w>
produc ed</w>
ai l</w>
w ood</w>
st -
par tic
ver sion</w>
ar ms</w>
y es</w>
a in</w>
wh e
in t
qu es
v al</w>
ag ed</w>
si mil
to tal</w>
perio d</w>
m it
le ast</w>
wor d</w>
is o
j our
le av
bro ad
ph y
h all</w>
el i
k ar
wor ds</w>
uni on</w>
ag re
ec u
tele vision</w>
5 0</w>
li ed</w>
hum an</w>
ec onom
a ward</w>
n ar
d one</w>
m ac
d le</w>
ro le</w>
sh ort</w>
200 5</w>
re ached</w>
m ic
pres ent</w>
re fer
as se
elec tion</w>
d ence</w>
oun ds</w>
p ap
st ood</w>
re ad</w>
r ound</w>
2 4</w>
me d
t ation</w>
sp ea
st ro
m el
cour se</w>
ne t
cre ated</w>
hear t</w>
ran ge</w>
18 8
em ents</w>
f ing
prof essi
fur ther</w>
vic t
wi fe</w>
st and</w>
d y
import ant</w>
si mp
direc tor</w>
st one</w>
pro mo
w r
produc tion</w>
z e
mar i
de mo
h and
or ity</w>
ar ri
eng land</w>
mo ve</w>
stan ding</w>
poli tical</w>
pro gram</w>
ful l</w>
c ali
vi de
di sp
a di
m outh</w>
w ro
j er
att emp
x im
ta king</w>
pro gr
fri end</w>
com b
r an</w>
wi de</w>
ei ther</w>
ha ir</w>
a ver
di tional</w>
t un
bro ther</w>
cla im
ne l</w>
n on-
1 4
announ ced</w>
tici p
ch ap
com ing</w>
comm is
ci vi
s le
compe ti
r ou
s a</w>
cep t</w>
pri v
inst ead</w>
1 2
d ings</w>
b it
la ke</w>
depart ment</w>
rel ati
de l</w>
c ru
ul a</w>
s ong
associ ation</w>
up on</w>
grad u
ab ility</w>
inde pen
in tro
g s</w>
follow ed</w>
te st</w>
re p
champion ship</w>
en cy</w>
sum mer</w>
wro te</w>
mom ent</w>
i or</w>
de fe
st and
d ru
sch o
the m
vi a</w>
f -
t em
s af
foun ded</w>
some one</w>
m r
fin ally</w>
b ac
su per
h old</w>
j a
con ta
n av
s ent</w>
th an
s k</w>
f es
s la
sto p</w>
ra dio</w>
hear d</w>
sup por
an im
da vi
f oc
re sid
t our
consi dered</w>
j ames</w>
s ar
ev ent
18 6
willi am</w>
ac i
tow ard</w>
2 1</w>
1 3
off ic
c en
as h</w>
bri dge</w>
soci ety</w>
ro ck</w>
200 4</w>
g es</w>
p ast</w>
ter min
th om
for man
ter ed</w>
roy al</w>
ep iso
may be</w>
dar k</w>
re al</w>
l ad
k ers</w>
descri bed</w>
gir l</w>
se a</w>
s ound</w>
mar k</w>
b it</w>
prob le
pro vin
o -
play ing</w>
vi du
tr ying</w>
soci al</w>
out side</w>
possi ble</w>
indi vidu
air s</w>
1 .
le ar
for t</w>
b ack
euro pe
su ff
ro w</w>
c s</w>
th -
200 0</w>
y et</w>
ac tu
k u
me t</w>
fi f
speci al</w>
si a</w>
per forman
se em
y a</w>
poli ce</w>
amp le</w>
as k</w>
o w</w>
reco g
comm on</w>
every thing</w>
duc ed</w>
tr ack</w>
pro ject</w>
ay ing</w>
batt le</w>
di sc
ali st</w>
to day</w>
lea ve</w>
tur al</w>
k ing
phy si
ad ministr
sh or
ic s</w>
mat ch</w>
st or
sp ace</w>
hist ori
sh u
c a</w>
nor thern</w>
an sw
c all</w>
k is
clo sed</w>
sty le</w>
tri ed</w>
ser ve</w>
serv ices</w>
fe et</w>
v ely</w>
m ir
s am
v ement</w>
18 7
st ers</w>
c are</w>
pre ss</w>
sec on
le ad</w>
2 2</w>
langu age</w>
in formation</w>
c ast</w>
n ers</w>
dau ghter</w>
fin ished</w>
ell s</w>
t v</w>
vil le</w>
bloo d</w>
er g
indi a</w>
fran ce</w>
in ning</w>
go d</w>
professi onal</w>
loc k</w>
ar m</w>
r ace</w>
str y</w>
1 00</w>
americ a</w>
w oo
o h</w>
def en
c el
log ical</w>
cali for
geor ge</w>
on to</w>
sh oul
p ra
bu l
australi a</w>
g ol
cl assi
sou thern</w>
il s</w>
do ing</w>
star t</w>
europe an</w>
g a</w>
low er</w>
li e</w>
par ticip
li c</w>
mun ici
pa in
mon ths</w>
s -
recor ded</w>
br ought</w>
hi t</w>
e vi
elec ted</w>
ex peri
re -
oun ded</w>
i ri
pp ing</w>
b y
w all</w>
st .</w>
su g
x i
p ing</w>
desig n</w>
la un
mul ti
califor nia</w>
ati onal</w>
inf lu
m ine</w>
gre en</w>
g an</w>
2 3</w>
b a</w>
l and
lo gi
ap pointed</w>
v a</w>
abo ve</w>
simil ar</w>
nee ded</w>
ho sp
mu se
vide o</w>
flo or</w>
ach ing</w>
po pu
curren tly</w>
re turn</w>
z z
st ep
ev ent</w>
sc en
rele ase</w>
per son</w>
es ti
oc cu
develop ed</w>
con stitu
c ing</w>
desp ite</w>
v ent
fac t</w>
s ays</w>
u tion</w>
k ind</w>
k en
gra ph
cle ar</w>
s en</w>
tu res</w>
w ash
gu e</w>
co -
ni fic
pul led</w>
ra ther</w>
com man
pro per
blu e</w>
av ail
ty pe</w>
popu lar</w>
usu ally</w>
prob ably</w>
construc tion</w>
poin ts</w>
rail way</w>
te e</w>
we ek</w>
kil led</w>
are as</w>
st age</w>
id enti
sci ence</w>
w on
p it
event ually</w>
d i</w>
c li
chri sti
200 3</w>
p un
fun c
hou se
0 .
davi d</w>
am ed</w>
seem ed</w>
fi g
be au
se par
deci ded</w>
v an</w>
se ven</w>
w ea
tri es</w>
aver age</w>
ter m</w>
ro l
emp loy
ri ch
for ces</w>
ex ecu
ad ded</w>
m ad
sk y</w>
run ning</w>
chi ef</w>
ai g
recor ds</w>
can ada</w>
ide a</w>
thr ough
str ong</w>
form ula</w>
de ad</w>
st ar</w>
ali zed</w>
lit er
ex pres
o l</w>
fes tiv
tra ining</w>
chang ed</w>
pi ec
man u
lo s</w>
qu ick
an g</w>
ex ample</w>
mini ster</w>
op s</w>
resul t</w>
nati ve</w>
2 8</w>
tech no
sec tion</w>
j ac
f av
ri es</w>
me an</w>
origin ally</w>
re ti
b at
minu tes</w>
ear li
con tr
ser i
de gre
curren t</w>
ric k</w>
ro man
st om
ad dition</w>
2 .
fe el
through out</w>
fri ends</w>
b ow
2 6</w>
bo y</w>
do w</w>
mon ey</w>
l in</w>
2 7</w>
moder n</w>
z i
rema ined</w>
li ps</w>
k a
v y</w>
me an
ev ents</w>
pro tec
mid dle</w>
wh o
in ation</w>
?? ??
200 2</w>
ne ws</w>
song s</w>
th in
cra ft</w>
avail able</w>
de ep</w>
sig nific
chi ld</w>
lead ing</w>
recog ni
te ams</w>
f ted</w>
de but</w>
si t</w>
enti al</w>
de fin
al y
ac y</w>
r y
ac hi
con nec
w el
bec om
sur vi
sho t</w>
pl es</w>
ca st
aga z
sit u
se at</w>
su d
ani a</w>
al -
ea stern</w>
for ward</w>
200 1</w>
boo ks</w>
scho ols</w>
di e</w>
re fu
m agaz
form s</w>
ol ym
muse um</w>
si ble</w>
ar s</w>
n om
u k</w>
tal k</w>
re spec
si an</w>
camp aig
quick ly</w>
z ing</w>
bi o
el se</w>
her self</w>
all er</w>
rou te</w>
g un
er ous</w>
ti t
some times</w>
sh ing</w>
u lar</w>
to m</w>
me e
offici al</w>
the at
t our</w>
ge tting</w>
heal th</w>
e e
ta in
p es</w>
r am
s op
t on
ess or</w>
il l</w>
per s
e qu
w ouldn</w>
at ure</w>
medi a</w>
fer ence</w>
smil e</w>
priv ate</w>
s old</w>
201 8</w>
mat eri
g one</w>
de st
im p
eng ine
hi ll</w>
com pu
d ded</w>
g old</w>
desig ned</w>
speci ally</w>
so f
h ours</w>
bre a
my self</w>
x ed</w>
stu dy</w>
ger many</w>
en a</w>
k m</w>
ban k</w>
f all</w>
reli gi
ver s</w>
di vi
mor ning</w>
k an
f ood</w>
e qui
gu n</w>
st ant</w>
al one</w>
g lo
ha dn</w>
ta ined</w>
im pro
mis sion</w>
la y</w>
pro cess</w>
cont ribu
feat ures</w>
indi an</w>
vi ol
ph one</w>
b ad</w>
ei ght</w>
comm er
t ter</w>
b is
australi an</w>
thom as</w>
2 9</w>
4 0</w>
s at</w>
provin ce</w>
tow ards</w>
mi cha
play ers</w>
lin es</w>
d ance</w>
it ali
k i</w>
r on
bur g</w>
w y
commit tee</w>
ment al</w>
pl at
t op
shi re</w>
u r</w>
ke pt</w>
gu lar</w>
demo cr
d or
ang el
t in
g al
att ack</w>
g oo
wh ole</w>
ig n</w>
te en</w>
qu ali
c oo
co ach</w>
arch it
charac ter</w>
con gre
si ze</w>
belie ve</w>
th us</w>
invol ved</w>
b le
ti n</w>
sy st
pau l</w>
pas sed</w>
j ects</w>
ac tive</w>
te l</w>
ex c
pp er</w>
l am
li ber
m ex
cent re</w>
sp an
r on</w>
th y</w>
h a</w>
b our
wal ked</w>
b an</w>
li gh
mex ic
l en
festiv al</w>
tour nam
c ent</w>
be l</w>
tiv ely</w>
si x
beg inning</w>
e specially</w>
mo ving</w>
pl an</w>
s ses</w>
lar gest</w>
b on
col um
fre y
sco t
euro pe</w>
erg y</w>
ri ghts</w>
ch ina</w>
m on</w>
fic ation</w>
per formed</w>
d ol
im medi
h ear</w>
fami lies</w>
p al</w>
b ase</w>
net work</w>
actu ally</w>
y ed</w>
cen sus</w>
l eng
frey ja</w>
ke t
fi ght</w>
lor d</w>
ma ster</w>
co ver</w>
at ors</w>
institu te</w>
pre mi
st an</w>
hosp ital</w>
* *
li am
en ced</w>
gr and
performan ce</w>
po se</w>
long er</w>
ro bert</w>
ar ts</w>
micha el</w>
p ass
par liam
comple ted</w>
writ ing</w>
g or
g ing</w>
sur pri
li br
mo vement</w>
me t
hu s
grou ps</w>
sub sequ
sy m
par ents</w>
bro wn</w>
re fer</w>
ex pla
par ts</w>
s at
199 9</w>
pro te
ju sti
direc ted</w>
leav ing</w>
n ic
con duc
success ful</w>
cer tain</w>
tur ning</w>
si ster</w>
t ely</w>
nat ural</w>
repor ted</w>
ul arly</w>
au l
bel ow</w>
sp ent</w>
st af
episo de</w>
ti al</w>
su pp
ar tic
fran c
h ood</w>
mo vi
de v
mar ket</w>
as ons</w>
w ed</w>
s low
me tho
ho p</w>
sp ort</w>
bu t
sy n
b ay</w>
do es
w ol
con n
fu ture</w>
dow n
spor ts</w>
for ced</w>
di tions</w>
in -
re ve
g ation</w>
in o</w>
russi an</w>
li ved</w>
enti re</w>
inclu des</w>
ra ised</w>
gr an
z a</w>
ent al</w>
all ing</w>
char les</w>
fem ale</w>
ell ing</w>
f ine</w>
re si
e th
f low
w ish</w>
el li
me ans</w>
t emp
18 5
can adi
v an
pho to
magaz ine</w>
ent ary</w>
se x</w>
3 1</w>
does n</w>
k h
att ac
ok ay</w>
ent ed</w>
st ay</w>
st ated</w>
feat ured</w>
all -
m p</w>
st ly</w>
lau gh
ex per
cu t</w>
happ ened</w>
wash ington</w>
acade my</w>
c .</w>
0 ,000</w>
s er</w>
no dded</w>
nor m
li sted</w>
pre par
struc ture</w>
sp ir
stop ped</w>
c lim
ber g</w>
ne igh
g lan
bo t
relati on
st oc
bi a</w>
li st
com par
sid es</w>
er a</w>
al e
sec ur
civi l</w>
se x
sy l
gra phi
si r</w>
it self</w>
la bor
feder al</w>
gr and</w>
ul t</w>
stu dies</w>
en vir
tur ed</w>
bil ity</w>
en ergy</w>
s n
ho t</w>
k in
foun d
f ell</w>
ac coun
organi zation</w>
competi tion</w>
mi c</w>
199 8</w>
k y
writ er</w>
tra vel
b om
me as
previ ous</w>
bu d
four th</w>
hen ry</w>
s aying</w>
an ese</w>
a -
air craft</w>
pe ter</w>
mo del</w>
provi ded</w>
ke ep
envir on
earli er</w>
del i
de al</w>
fin an
hol ds</w>
re placed</w>
po st</w>
exp an
f ast</w>
est er</w>
tru e</w>
con ference</w>
du ce</w>
si on
allow ed</w>
l o</w>
kno w
f lu
indepen dent</w>
b bed</w>
prin ci
sel ves</w>
bre ath</w>
e m</w>
king dom</w>
ar ing</w>
appro xim
awar ds</w>
re vol
prof essor</w>
sk in</w>
ne arly</w>
dom in
inter est</w>
b un
al ed</w>
stu dio</w>
ru g
who se</w>
g am
m ol
cap ital</w>
coun tries</w>
degre e</w>
pro mis
pr acti
y our
1 ,
plac es</w>
medi cal</w>
ne t</w>
tournam ent</w>
l un
f am
h ell</w>
kil l</w>
win ning</w>
rel ated</w>
m ach
co ast</w>
ent er
claim ed</w>
ath le
se y</w>
mat ter</w>
n ation</w>
as es</w>
histori c</w>
techno logy</w>
in j
3 .
p on
campaig n</w>
syst ems</w>
inter est
j ack</w>
is l
ch ine
every one</w>
p lu
show s</w>
fing ers</w>
ter rit
lead er</w>
awar ded</w>
ca tho
ol der</w>
sol di
ar gu
ori al</w>
val ley</w>
af ter
any one</w>
acti vi
atten tion</w>
ow ned</w>
di g
199 6</w>
op ening</w>
as y</w>
squ are</w>
nati on
buil dings</w>
canadi an</w>
d un
g ate</w>
inv esti
k ill
li k
indi c
an o</w>
a i</w>
e e</w>
d an</w>
re gular</w>
ch est</w>
c er</w>
ec tive</w>
comple te</w>
ing ly</w>
jap anese</w>
it or</w>
intro duced</w>
cap tain</w>
succ ess</w>
199 7</w>
al es</w>
dist ribu
m as
feel ing</w>
b ar</w>
smil ed</w>
chine se</w>
k it
sur r
secur ity</w>
progr am
? ?</w>
p sy
ver se</w>
sm ith</w>
jap an</w>
ma kes</w>
al ex
sen se</w>
la b
hu man
ag u
jo b</w>
gh tly</w>
d ata</w>
em er
at ory</w>
provi de</w>
t el
ch all
ent ered</w>
t ch</w>
leg al</w>
manag ement</w>
an e</w>
publi c
c ab
tw ent
org an
nor th
s lo
ar ed</w>
w ell
a u</w>
ch ec
fil ms</w>
gi ving</w>
offic er</w>
p h</w>
wee ks</w>
re gar
sen ior</w>
ac qu
staf f</w>
fre qu
ac tiv
fi gh
me et</w>
whi sp
indu stry</w>
high er</w>
doc um
ha w
que en</w>
sour ces</w>
vie ws</w>
bre ak</w>
per f
mee ting</w>
christi an</w>
war ds</w>
al ter
re ason</w>
ac cep
oc cur
c es
i re
u ses</w>
pur ch
tow n
ad s</w>
y el
an ed</w>
diff ic
dou b
asse mb
tre at
es cap
gir ls</w>
ro se</w>
ke ts</w>
hea vy</w>
mr .</w>
da e</w>
r i</w>
c in
ex hi
comm uni
di um</w>
hol ding</w>
ru p
can di
ra y</w>
ta kes</w>
v oc
t ary</w>
bil l</w>
hist or
theat re</w>
joh n
c ele
ex am
s m</w>
ro o
ear th</w>
sh oo
sh ook</w>
nat ure</w>
cor por
ad es</w>
sci enti
sh e
con serv
k er
approxim ately</w>
sour ce</w>
18 4
f y</w>
previ ously</w>
ro r</w>
s ity</w>
r t</w>
cast le</w>
lim ited</w>
g ent
cro w
chap ter</w>
comm and</w>
ch air</w>
g ers</w>
gu y</w>
hus band</w>
sug ge
an aly
itali an</w>
span ish</w>
as ing</w>
or ing</w>
bo x</w>
pri mary</w>
il ing</w>
run s</w>
per son
leng th</w>
199 5</w>
an ces</w>
re public</w>
we b
gl ass</w>
comp an
o x
d ary</w>
wal k</w>
k o</w>
ad ed</w>
graph y</w>
afric a</w>
loc ation</w>
al le
we ight</w>
ari an</w>
u se
ch em
o d
pal ity</w>
199 4</w>
or din
199 2</w>
ish ing</w>
phi li
pers onal</w>
ques tion</w>
st ance</w>
ther e
star ting</w>
sc ored</w>
pri or</w>
al d</w>
ter y</w>
b al</w>
z a
t ty</w>
atten ded</w>
com es</w>
me ant</w>
exp lo
ty pic
ar t
commun ic
gro w
hi l
immedi ately</w>
b r</w>
coll ection</w>
tr ade</w>
col d</w>
know le
tw o-
s av
un it</w>
fre e
libr ary</w>
d ad</w>
b es</w>
un its</w>
bu s</w>
chan nel</w>
ta ins</w>
y u
cau ght</w>
them selves</w>
rich ard</w>
an -
1 st</w>
defe ated</w>
su n</w>
fore st</w>
s and
wh om</w>
on a</w>
gener ally</w>
moun tain</w>
dow s</w>
oper ations</w>
contr act</w>
a .</w>
it al
g in</w>
am oun
y ea
go al</w>
stand ard</w>
qu ite</w>
ro man</w>
p ass</w>
stu dent</w>
c ks</w>
cou ple</w>
indu stri
im ag
econom ic</w>
arti st</w>
tex as</w>
an ci
sch ol
dre ss</w>
oper ation</w>
thin king</w>
govern or</w>
m ec
y l
signific ant</w>
slow ly</w>
ann a</w>
oc ca
nov el</w>
ili ties</w>
ri age</w>
sel f-
vel s</w>
shoul der</w>
g n
6 0</w>
br it
at e
ra di
yea h</w>
n ine</w>
manag ed</w>
al o
le -
cl ar
con v
par is</w>
champion ships</w>
al low</w>
regi onal</w>
proper ty</w>
ne ar
ck y</w>
g en</w>
cro ss</w>
f la
stu died</w>
il e</w>
o logy</w>
munici pality</w>
s sing</w>
gu it
v ar
re port</w>
s ac
der ing</w>
play s</w>
i st</w>
ire land</w>
off ered</w>
appear ance</w>
mon th</w>
wor th</w>
dr ag
wee k
hel ped</w>
re ly</w>
199 3</w>
bis hop</w>
mo stly</w>
hop e</w>
le e</w>
practi ce</w>
no ted</w>
d ang
manu fac
0 -
w er
tra ditional</w>
nec k</w>
pa in</w>
ch en</w>
ve hi
in te
sor ry</w>
commis sion</w>
oun ding</w>
pl ant</w>
requ ired</w>
fore ign</w>
b ly</w>
lo ss</w>
nav y</w>
inc or
is ra
wr ong</w>
relation ship</w>
199 1</w>
199 0</w>
bo ys</w>
st e</w>
ea si
lik ely</w>
h in
gu ard</w>
exp ected</w>
pr ac
new sp
ser ving</w>
fig ure</w>
comple tely</w>
pres sed</w>
whe ther</w>
e ts</w>
dr .</w>
g as</w>
br ing</w>
under stand</w>
h our</w>
ac cess</w>
afric an</w>
we ap
e .</w>
cul ture</w>
and re
fer red</w>
newsp ap
ey e</w>
b ol
cele br
initi ally</w>
st y</w>
ric ul
k y</w>
pap er</w>
as ses</w>
li ves</w>
f as
s wit
dro pped</w>
air port</w>
de m
cau sed</w>
th i
ch air
t s
high way</w>
li t</w>
l ac
re pe
chi c
wa iting</w>
spe ed</w>
be th</w>
beau ti
eng ine</w>
mi gr
found ation</w>
tal king</w>
p ati
mem ber
manag er</w>
sou th
catho lic</w>
nam es</w>
ch er</w>
deci sion</w>
in come</w>
tic ally</w>
wa it</w>
compan ies</w>
med al</w>
p ea
vict ori
ell a</w>
sil ver</w>
happ y</w>
tri c</w>
mid -
gu i
becom ing</w>
dist ance</w>
represent ed</w>
m it</w>
ko re
t te</w>
form ing</w>
individu al</w>
ex cept</w>
win dow</w>
car ried</w>
er -
ri ch</w>
arri ved</w>
movi e</w>
de st</w>
proble m</w>
re member</w>
num erous</w>
b ad
ha ps</w>
car ol
be y
direc tion</w>
fam ous</w>
4 .
s sion</w>
dri ve</w>
chang es</w>
hou ses</w>
star s</w>
f lic
assemb ly</w>
belie ved</w>
laun ched</w>
sur face</w>
ste p</w>
wat ch</w>
parliam ent</w>
vi et</w>
sk i</w>
en jo
ach es</w>
c um
ec h</w>
sud den
al and</w>
per haps</w>
commer cial</w>
piec e</w>
re ach</w>
k ra
pen n
ch ance</w>
om s</w>
ad op
de p
re r</w>
minu te</w>
k -
ad ditional</w>
syl v
por ary</w>
ann ual</w>
experi ence</w>
z es</w>
nec ess
sudden ly</w>
wat ched</w>
y er</w>
chic ago</w>
l -
arti sts</w>
vir gin
issu e</w>
issu es</w>
vict ory</w>
en ding</w>
ed ge</w>
wh it
m ess
f al
u n</w>
bl ack
s ort</w>
k ne
pu s</w>
partic ularly</w>
a c</w>
ro b
tra in</w>
j ack
198 9</w>
prin ce</w>
so ft</w>
partic ular</w>
m ale</w>
tru st</w>
6 5</w>
ing u
pro gre
auth or</w>
associ ated</w>
lad y</w>
f ish</w>
sp ar
d ai
dec lar
t ric
th or
answ er</w>
ti z
in ci
de termin
ic h</w>
leg s</w>
u t
mil es</w>
agre ed</w>
dre w</w>
t ree</w>
v in</w>
au di
ci es</w>
ter ms</w>
gre at
evi dence</w>
beauti ful</w>
e an</w>
cam p</w>
wh at
gre w</w>
sp r
so viet</w>
reg im
fil led</w>
app lic
st ren
a h
de b
b c</w>
ho tel</w>
ba si
c amer
musi cal</w>
o li
the ast</w>
e ve</w>
reg ul
sig n</w>
tr a</w>
secre tary</w>
c ally</w>
s ons</w>
at lan
- y
simp ly</w>
ba by</w>
execu tive</w>
pic s</w>
t ail</w>
d ates</w>
m .</w>
c les</w>
mexic o</w>
hur t</w>
198 8</w>
li ghts</w>
av o
foo t</w>
th ou
incor por
c ked</w>
and a</w>
pro ce
jour n
it ation</w>
me tal</w>
ur ing</w>
tur ns</w>
th ous
on ic</w>
s ent
mar ine</w>
comple x</w>
o p</w>
finan cial</w>
s mo
gr ade</w>
f ru
incre ased</w>
j uni
respon se</w>
loo ks</w>
con ver
trans l
fa iled</w>
cor ner</w>
pow er
religi ous</w>
r ate</w>
y outh</w>
aul t</w>
p in
stren g
re n</w>
high est</w>
sub ject</w>
compu ter</w>
ar ran
ex ac
t ab
mic ro
sp ring</w>
chri st
n d</w>
mis s</w>
in stru
2 5
conta ins</w>
e dition</w>
ati ves</w>
ap par
app ear</w>
sel y</w>
rema ins</w>
bro thers</w>
maj ority</w>
is n</w>
poli cy</w>
anci ent</w>
lar ger</w>
ic a</w>
j am
u pper</w>
cre ate</w>
em o
a st
il lu
ri s</w>
ital y</w>
emp ire</w>
c ause</w>
temp le</w>
pl ans</w>
on e-
fl ori
o t</w>
re view</w>
po st
ze aland</w>
virgin ia</w>
se mi
sti c</w>
ac tions</w>
cre d
stra ight</w>
p aci
a vi
es tim
charac ters</w>
z er
pre tty</w>
sylv ania</w>
it a</w>
materi al</w>
ad o</w>
sh own</w>
trac ks</w>
ser ves</w>
bas ket
scri p
win ter</w>
po or</w>
con clu
j en
tr ou
ju li
ple ase</w>
near by</w>
pi c</w>
e th</w>
g all
read ing</w>
r ural</w>
progr ams</w>
activi ties</w>
cas es</w>
ha bit
in ated</w>
dest roy
ci tiz
sel ected</w>
sing er</w>
mar riage</w>
ge ts</w>
basket ball</w>
y ou
m m</w>
inv est
m ass
direc tly</w>
subsequ ently</w>
ne u
po ten
eff ect</w>
rec ent</w>
proble ms</w>
ster ed</w>
angel es</w>
18 3
d ani
the ory</w>
o logical</w>
5 00</w>
s y</w>
f it
al a</w>
bey ond</w>
scen e</w>
tion ally</w>
g il
wi d
administr ation</w>
figh ting</w>
al i</w>
w a</w>
attemp t</w>
di sh</w>
8 0</w>
198 7</w>
cul tural</w>
at trac
ch u
app ears</w>
anti -
justi ce</w>
ac ting</w>
bro ke</w>
resul ts</w>
w o
er o
histor ical</w>
por tra
russi a</w>
198 6</w>
en em
se l</w>
sc ore</w>
be at</w>
dis covered</w>
ch ester</w>
ei gh
cont em
un g</w>
h i</w>
oper ated</w>
ic ally</w>
gre ek</w>
t au
d red</w>
no table</w>
re fl
sett le
st ore</w>
sit ting</w>
c ell</w>
clo ser</w>
le ts</w>
av en
al li
poli tici
reti red</w>
mit ted</w>
ben e
vari ety</w>
adv an
feat ure</w>
au tom
gu il
w ise</w>
p ay</w>
jo sep
d .</w>
win d</w>
ec ture</w>
exac tly</w>
de si
6 .
star ed</w>
b ing</w>
mar tin</w>
sta dium</w>
fel low</w>
t ory</w>
198 4</w>
sp i
ar ies</w>
ani c</w>
co st</w>
mat ches</w>
st ories</w>
la w
mo m</w>
al ing</w>
y p
j i
go als</w>
g b
po ol</w>
gu ar
7 .
stru gg
der i
ac her</w>
ac tor</w>
ci ties</w>
mean ing</w>
de pen
n on
elec tr
is lands</w>
dist inc
penn sylvania</w>
2 nd</w>
josep h</w>
ti l
recor ding</w>
gen us</w>
soldi ers</w>
phi lo
col or</w>
4 5</w>
suppor ted</w>
f light</w>
bra z
tou ch</w>
so li
su it</w>
sum ed</w>
g .</w>
198 5</w>
r o</w>
j or
198 0</w>
as p
su sp
bur y</w>
ju d
20 0</w>
rema ining</w>
ay ed</w>
we al
ear ned</w>
d u</w>
speci fic</w>
no tic
pro t
foc us</w>
cu stom
re ali
m es</w>
contin ue</w>
stat us</w>
st ations</w>
fir m</w>
b ill
kis s</w>
s ati
u te</w>
l ati
k el
in o
pass eng
flori da</w>
cat eg
st a</w>
ar m
saf e</w>
b la
e ved</w>
geor gi
pe ace</w>
doc tor</w>
s am</w>
amoun t</w>
ni e</w>
j .</w>
separ ate</w>
pro min
head ed</w>
sh es</w>
f ear</w>
charac ter
om e
mo del
h oo
pos se
ga ze</w>
char t</w>
p ac
d ding</w>
t ac
iri sh</w>
m enti
sh el
olym pics</w>
or dered</w>
refer red</w>
br on
ed y</w>
an der</w>
sli ghtly</w>
r d</w>
neigh bor
be ach</w>
there fore</w>
t ari
de ta
k ni
wor l
tre es</w>
di a</w>
en s
tow er</w>
re alized</w>
am e
b ab
hor se</w>
ex tre
a x
b oun
go es</w>
p il
see ing</w>
ing ing</w>
ag ricul
de sc
b ell</w>
z y</w>
t ten</w>
col labor
tem per
jo in</w>
respon sible</w>
ste pped</w>
op port
congre ss</w>
over all</w>
tro ops</w>
present ed</w>
ti an</w>
r .</w>
norm al</w>
sp read</w>
bre ak
gro wing</w>
what ever</w>
di se
u es</w>
paci fic</w>
democr atic</w>
wat ching</w>
juni or</w>
ad ap
is ing</w>
sh oc
con ven
e asy</w>
fa ir
w ra
p a</w>
town ship</w>
quar ters</w>
individu als</w>
o il</w>
cho ice</w>
h an</w>
st ati
no .</w>
bran ch</w>
pri me</w>
show ed</w>
knowle dge</w>
sa int</w>
chair man</w>
b loc
inte gr
par ish</w>
assi stant</w>
physi cal</w>
b o</w>
gre ater</w>
198 3</w>
tre ss</w>
tru th</w>
d ated</w>
exper im
wal es</w>
cre ek</w>
ur ban</w>
bi g
bas e
j i</w>
expres sion</w>
l ack</w>
o t
a po
ac ted</w>
shi rt</w>
cl in
ur a</w>
com posed</w>
wat er
d ul
7 0</w>
ap pe
main ly</w>
situ ation</w>
lou is</w>
pi d</w>
no te</w>
bl ing</w>
c key</w>
incre ase</w>
nati ons</w>
el ev
ar chi
pu shed</w>
bro ken</w>
leg isl
pre ci
b en</w>
construc ted</w>
co ff
n it
w alls</w>
wor kers</w>
v a
198 2</w>
t oni
sle ep</w>
spea k</w>
i al</w>
ci an</w>
ar a</w>
de mon
fif th</w>
num bers</w>
step s</w>
car s</w>
k ir
to -
el ess</w>
spo ke</w>
5 .
con fu
ru le</w>
al ism</w>
ver si
n ice</w>
co de</w>
engine ering</w>
p y
direc t</w>
philo sop
hun dred</w>
9 0</w>
n an
bo at</w>
thro at</w>
laugh ed</w>
an tly</w>
th u
f c</w>
off er</w>
8 .
ac ci
w ings</w>
re qui
diffic ult</w>
qu ality</w>
base ball</w>
plan ned</w>
thre e-
secre t</w>
mec han
i e</w>
el le</w>
rec ently</w>
win dows</w>
c ket</w>
197 9</w>
bel ong
f ying</w>
broad cast</w>
c em
se asons</w>
contro l
am ing</w>
197 2</w>
h it
ed ward</w>
sec u
p aid</w>
ac ts</w>
auth ori
be d
produc er</w>
ec ting</w>
stre am</w>
gh t
ple as
ac comp
z o
provi des</w>
agre ement</w>
ci a</w>
leav es</w>
re moved</w>
mal es</w>
z u
ma r</w>
exten ded</w>
tu al</w>
char ge</w>
pr inc
defen se</w>
bor der</w>
o s
c ric
posi tions</w>
compe ted</w>
pres ence</w>
sett led</w>
p ay
sing les</w>
p ak
tra ff
menti oned</w>
produc ts</w>
rol led</w>
si ght</w>
je wish</w>
t led</w>
sh are</w>
194 5</w>
i zed</w>
de dic
scre en</w>
issu ed</w>
er ship</w>
ma d</w>
y n
ash ed</w>
vo te</w>
in struc
tech ni
medi c
comman der</w>
consi sts</w>
tt ers</w>
sol ution</w>
ge o
buil d</w>
territ ory</w>
em per
dai ly</w>
w an</w>
ben ef
198 1</w>
fem ales</w>
he at</w>
sm aller</w>
cre w</w>
simp le</w>
k at
wal king</w>
min or</w>
offic ers</w>
gre en
2 -
b lan
dra w</w>
ap e</w>
for tun
artic le</w>
influ ence</w>
pol y
le tter</w>
usu al</w>
all en</w>
be ha
organ is
divi ded</w>
1 -
multi ple</w>
d ney</w>
dr ama</w>
ad ing</w>
inten ded</w>
er ly</w>
g ab
mem ory</w>
a head</w>
ti oned</w>
perf ect</w>
197 4</w>
ri se</w>
de ep
as tic</w>
ra id</w>
tri bu
duc tion</w>
sp ain</w>
ag ing</w>
lat ter</w>
s as</w>
shu t</w>
mis si
197 6</w>
pic ked</w>
ann e</w>
col on
champi on</w>
seri ous</w>
auth ority</w>
acqu ired</w>
197 5</w>
secon ds</w>
app ed</w>
k in</w>
is tic</w>
val ue</w>
brit ain</w>
la p
cam pus</w>
high -
v ac
f is
197 8</w>
t ol
3 5</w>
ty pes</w>
man n</w>
v es
gol den</w>
well -
re publi
197 0</w>
st airs</w>
pol and</w>
franc is
al led</w>
ju dge</w>
r at
fol low</w>
pre -
rep lied</w>
b lock</w>
con ditions</w>
est ate</w>
g as
qu es</w>
jour nal</w>
gen e
mar ked</w>
may or</w>
be side</w>
for ts</w>
le vels</w>
recogni zed</w>
x es</w>
whisp ered</w>
4 -
c tion</w>
newspap er</w>
n is</w>
3 0
pri ze</w>
wor k
9 .
shor tly</w>
196 8</w>
glan ced</w>
regim ent</w>
cover s</w>
pro posed</w>
broad ca
mi ke</w>
w is
d am</w>
ge l</w>
nee ds</w>
sh all</w>
c av
l ers</w>
kit chen</w>
ha ven</w>
sho p</w>
gradu ated</w>
ra in</w>
ga ined</w>
m as</w>
ru les</w>
im age</w>
pat ter
administr ative</w>
elec tions</w>
l ined</w>
ti s</w>
ob vi
tw ice</w>
ty -
y n</w>
l i</w>
no w
ear -
ve y</w>
high ly</w>
lic en
organi zed</w>
organi z
pri son</w>
squ ad
de man
p ment</w>
se vent
re ment</w>
3 rd</w>
than k</w>
k al
ri c</w>
con fir
re sc
gradu ate</w>
197 3</w>
18 0
int elli
lo ved</w>
pres sure</w>
el ements</w>
ho st</w>
con centr
ir on</w>
mon d</w>
ri d
cor ps</w>
e ds</w>
pro duce</w>
promo ted</w>
se ems</w>
fin als</w>
ari a</w>
sig n
d av
198 0s</w>
cir cu
vol un
rac es</w>
n ur
po p</w>
dou ble</w>
fin ish</w>
dig ital</w>
am m
cla im</w>
co m</w>
la bel</w>
pro ces
197 7</w>
on e
h o</w>
sa ve</w>
fri end
func tion</w>
ab and
l an</w>
re y</w>
sm is
offici ally</w>
far m</w>
ex clu
grow th</w>
d al
l ec
spo t</w>
di e
per cent</w>
reve aled</w>
h en</w>
emper or</w>
power ful</w>
mari ly</w>
lo sing</w>
g ely</w>
un ity</w>
a sian</w>
ho ckey</w>
carol ina</w>
posi tive</w>
jo e</w>
ig nor
resid ents</w>
war m</w>
house holds</w>
i ii</w>
i b
t elling</w>
we st
desig n
ou d</w>
do g</w>
gu ess</w>
pur pose</w>
au stri
m ass</w>
r ying</w>
beha vi
196 9</w>
ti ves</w>
toni ght</w>
necess ary</w>
n as
c king</w>
air ed</w>
ne s
p air</w>
aw are</w>
ent ran
vi sit</w>
ten ed</w>
al ty</w>
er al</w>
albu ms</w>
pri marily</w>
ef fort</w>
rac ing</w>
op po
w er</w>
gb p</w>
tech n
gi ves</w>
tra vel</w>
tex t</w>
197 1</w>
v or
destroy ed</w>
hou sing</w>
bo y
fac ed</w>
c z
bu ried</w>
ev ol
politici an</w>
gi an</w>
le aned</w>
s in</w>
medi an</w>
s ab
mu sc
disc us
bo ston</w>
demon str
n one</w>
du tch</w>
te acher</w>
on line</w>
activ ity</w>
psy cho
am bi
saf ety</w>
or che
e .
enter tain
k ings</w>
197 0s</w>
orche str
per man
gra bbed</w>
ul ty</w>
j ones</w>
h at
19 th</w>
p el
gr y</w>
mi xed</w>
dar k
ow ner</w>
el d</w>
stor m</w>
le ss
th es</w>
ev ening</w>
er e
accep ted</w>
si gh
de pu
sup posed</w>
w rest
ent h</w>
fran k</w>
tw el
ner ship</w>
en -
lati n</w>
elec tric</w>
e ding</w>
con flic
st ran
fiel ds</w>
s low</w>
ol a</w>
pro jects</w>
al ong
f air</w>
appear ances</w>
b lo
pres sion</w>
por tu
d ry</w>
corpor ation</w>
eli za
p age</w>
g ary</w>
196 7</w>
h ang
appro ach</w>
as signed</w>
protec tion</w>
go tten</w>
inf an
conn ected</w>
li fe
g ul
dam n</w>
lu c
. c.</w>
ran k</w>
cont act</w>
sit es</w>
trans ferred</w>
scot land</w>
shi t</w>
re sted</w>
pi er
see m</w>
bot tom</w>
di an</w>
youn ger</w>
cap ac
secon dary</w>
b in
un able</w>
s l
pri son
i x</w>
pic ture</w>
2 ,
3 -
ve -
sex ual</w>
mach ine</w>
ar med</w>
l ying</w>
no t
rema in</w>
con vers
du ke</w>
mic hi
t ren
v i</w>
initi al</w>
mp ed</w>
c ement</w>
cor e</w>
4 th</w>
glo bal</w>
h as
thre at
mu t
bor ough</w>
tau ght</w>
sugge sted</w>
ar i</w>
ri sk</w>
acade mic</w>
z en</w>
phili pp
occu pi
eff ects</w>
re d
t ears</w>
ques tions</w>
o hi
e ag
escap e</w>
c ard</w>
f ought</w>
gar den</w>
ministr y</w>
shoul ders</w>
t ells</w>
along side</w>
t i</w>
ed itor</w>
eu r</w>
6 4</w>
g ence</w>
?? ?</w>
ami c</w>
sco tt</w>
or ation</w>
do ors</w>
bo dies</w>
easi ly</w>
promin ent</w>
ba sis</w>
streng th</w>
a sia</w>
settle ment</w>
a b</w>
typic ally</w>
as ks</w>
sc ul
ma xim
beg in</w>
5 0
gra y</w>
7 5</w>
moun t</w>
poten tial</w>
j on
form erly</w>
treat ment</w>
graphi c</w>
re sta
ri f
te eth</w>
moun tains</w>
b ag
resta ur
pak i
aven ue</w>
en cour
long -
prot ect</w>
dra wn</w>
cor rec
re member
contem porary</w>
rug by</w>
est s</w>
or ders</w>
her it
f l</w>
am i</w>
industri al</w>
ex t
sup er</w>
mil e</w>
bri g
n es</w>
ex change</w>
ap art
pre v
kan sas</w>
ma x</w>
fl ying</w>
ing ham</w>
win ner</w>
alex ander</w>
equi pment</w>
cer em
hea vi
z one</w>
dam age</w>
republi can</w>
de tec
victori a</w>
196 4</w>
mag ic</w>
im ple
al u
ne g
sc ale</w>
bro o
p ath</w>
francis co</w>
j ected</w>
y an
3 2</w>
follow s</w>
bir th</w>
ver ed</w>
ne i
re serve</w>
tran sport</w>
b ak
foot b
ef forts</w>
clu bs</w>
em i
le g</w>
it es</w>
s ad
web site</w>
than ks</w>
keep ing</w>
yel low</w>
ohi o</w>
bur n</w>
oun d
liter ature</w>
ac cu
li eu
li fted</w>
piec es</w>
advan ced</w>
candi date</w>
s i</w>
your e</w>
hon or</w>
har d
hu ge</w>
tri al</w>
compar ed</w>
tit led</w>
occu p
la id</w>
consi der
lead ers</w>
vi c</w>
ro me</w>
is on</w>
re al
ent er</w>
spea king</w>
su pre
str ong
ti ce</w>
com for
eliza beth</w>
jer sey</w>
f it</w>
196 0s</w>
d ay
stoc k</w>
4 4</w>
comm only</w>
gr ant</w>
j az
michi gan</w>
fle et</w>
sof tw
sen ate</w>
incorpor ated</w>
ste el</w>
man i
defe at</w>
b ought</w>
bur gh</w>
cap tured</w>
wil d</w>
u t</w>
196 5</w>
t am
oper a</w>
y ards</w>
th a</w>
traff ic</w>
f loo
design ated</w>
foc used</w>
accoun t</w>
regi ster</w>
coun t</w>
no tes</w>
succ ee
ro oms</w>
refu sed</w>
wan ts</w>
comb ined</w>
s wi
lieu ten
ear l</w>
dre ssed</w>
we aring</w>
occur red</w>
s au
ag ency</w>
199 0s</w>
adv ant
f alls</w>
j an</w>
dedic ated</w>
in i</w>
produc t</w>
p -
t one</w>
particip ated</w>
m i</w>
196 6</w>
r ad
declar ed</w>
f ly</w>
happ en</w>
pat ri
ren amed</w>
ste in</w>
plan ning</w>
g la
pul l</w>
ro ll</w>
ex pl
off ers</w>
dani el</w>
sp lit</w>
ta x</w>
fil e</w>
willi ams</w>
softw are</w>
mon t
r as
wa ve</w>
nav al</w>
b i</w>
20 th</w>
capac ity</w>
b ang
isra el</w>
ra il</w>
ex pen
ap poin
ren ce</w>
s ounds</w>
go d
ali ve</w>
n ick</w>
re turning</w>
ill s</w>
entertain ment</w>
ti tu
v .</w>
john son</w>
kno wing</w>
ag ent</w>
purch ased</w>
aff airs</w>
196 0</w>
mur der</w>
ad ver
guit ar</w>
17 9
us a</w>
bene ath</w>
surr ounding</w>
dre am</w>
mu sli
194 4</w>
foun der</w>
exhi bi
li p</w>
fac ilities</w>
ta r</w>
off en
st ence</w>
tran spor
re plac
fi re
chall eng
u kra
coff ee</w>
it ors</w>
notic ed</w>
oper ating</w>
di tionally</w>
mem orial</w>
pri ce</w>
scienti fic</w>
plat form</w>
o ther
sa in
ar ab
se tting</w>
fir st-
por tion</w>
i .
ad or</w>
tou ri
plan ts</w>
sy dney</w>
hal f-
vol u
scot tish</w>
langu ages</w>
in si
cer tain
c us</w>
vo ted</w>
continu es</w>
lead ership</w>
conduc ted</w>
colum bia</w>
ga ther
t all</w>
emp ty</w>
sil ence</w>
qui et</w>
clo thes</w>
squad ron</w>
bb c</w>
bri ef
c alling</w>
v amp
them ati
wid ely</w>
poli sh</w>
f ers</w>
li ar</w>
entran ce</w>
w ai
suff ered</w>
a .
pow ers</w>
gener ation</w>
se ts</w>
anim als</w>
cri tical</w>
batt ali
fing er</w>
adop ted</w>
environ ment</w>
un t</w>
la ws</w>
head s</w>
feat uring</w>
ap art</w>
coll ec
cho sen</w>
tion ary</w>
pal ace</w>
lan e</w>
is es</w>
lear ning</w>
ri sing</w>
re aching</w>
woo d
5 -
ri an</w>
bra in</w>
determin ed</w>
ho ly</w>
cont ent</w>
georgi a</w>
head quarters</w>
oni st</w>
possi bly</w>
de -
hy dro
ani an</w>
swe et</w>
ti e</w>
elec tric
civi li
par ties</w>
d den</w>
fi gu
con cept</w>
pain ting</w>
sol o</w>
w av
human s</w>
pol it
z i</w>
analy sis</w>
enem y</w>
tur ing</w>
a e</w>
el im
in sp
ri a</w>
sou l</w>
ir an</w>
dist ingu
jo int</w>
ba g</w>
cri min
t ts</w>
metho d</w>
ch er
free dom</w>
pas sing</w>
o v
anim al</w>
princi pal</w>
ma themati
app lied</w>
stom ach</w>
ch i</w>
footb aller</w>
di c</w>
ali sts</w>
fas hi
ter ri
sol u
v inc
lar gely</w>
th ats</w>
shar ed</w>
b ound</w>
par ti
n y
sat ur
col oni
di t</w>
dri ver</w>
oc ean</w>
chri s</w>
bri ght</w>
le gen
the ater</w>
kno ws</w>
con sul
ff s</w>
me tro
ha u
ki ds</w>
gu ys</w>
ri s
tin y</w>
ici ent</w>
infan try</w>
g y
any way</w>
m ers</w>
pic k</w>
estim ated</w>
f ts</w>
c ow
techn ical</w>
ful l-
cer ti
vic ti
le tters</w>
r out
d ale</w>
ale x</w>
coun ter
z er</w>
ar th
cl asses</w>
el led</w>
st ayed</w>
ti ght</w>
han ded</w>
fol k</w>
ar c
thou ghts</w>
our ed</w>
crow d</w>
b ou
le s
wa ke</w>
feder ation</w>
sati s
in sul
im peri
f a</w>
investi g
tt a</w>
twent y</w>
mo di
jack son</w>
f red</w>
aff ili
th ick</w>
qu ick</w>
mar ia</w>
po e
att le</w>
pic al</w>
inter pre
com edy</w>
k ins</w>
lo se</w>
h es
3 3</w>
ph y</w>
cem e
communi ties</w>
n ings</w>
196 3</w>
con trac
becom es</w>
cri me</w>
en ge</w>
weap ons</w>
episo des</w>
form at</w>
lear ned</w>
beg ins</w>
it able</w>
occupi ed</w>
se ats</w>
kill ing</w>
imp act</w>
ac e
gen e</w>
cover ing</w>
or a</w>
196 2</w>
sal es</w>
n or</w>
situ ated</w>
rel ations</w>
fav or
den sity</w>
p ag
re ven
ga in</w>
bl in
bour ne</w>
t .</w>
mo tion</w>
g -
re min
scul p
im migr
la y
g ur
allow ing</w>
tw i
gun s</w>
reli ef</w>
e z</w>
b by</w>
wa ited</w>
t ted</w>
rail road</w>
supre me</w>
an i</w>
basi c</w>
un like</w>
re mo
ran ked</w>
194 8</w>
dro p</w>
fac es</w>
part ner</w>
defin ed</w>
ro ads</w>
li shed</w>
b .</w>
four -
bir d</w>
m es
wr ite</w>
re views</w>
distribu tion</w>
s end</w>
ini an</w>
ep ing</w>
n el
ac tress</w>
weal th</w>
uni que</w>
prac tic
bo w</w>
si vely</w>
194 2</w>
on ia</w>
is s</w>
si oned</w>
chall enge</w>
repor ts</w>
dr ink</w>
ro les</w>
ti a</w>
te aching</w>
sil ent</w>
ma u
en e</w>
v on</w>
vie wed</w>
ul l</w>
bu re
promis e</w>
car ry</w>
re sources</w>
plan e</w>
pur su
indepen dence</w>
cri tics</w>
fac ility</w>
attac ked</w>
volu me</w>
t an</w>
b on</w>
confir med</w>
no se</w>
li ked</w>
min im
tit les</w>
si onal</w>
bir ds</w>
gran ted</w>
or an
ch oo
6 -
af raid</w>
respec tively</w>
ang er</w>
concer t</w>
re vi
194 0</w>
5 th</w>
f ab
speci fic
ch or
vamp ire</w>
f **
r ati
tri p</w>
t um
c d</w>
house hold</w>
ari ly</w>
st range</w>
t ment</w>
depu ty</w>
surpri se</w>
model s</w>
mo on</w>
sc oring</w>
si mul
ho sted</w>
k ic
d al</w>
ill ino
y ard</w>
claim s</w>
k ri
196 1</w>
expla ined</w>
cle arly</w>
wol f</w>
volun te
recei ve</w>
ad am</w>
h es</w>
twent y-
nei ther</w>
your self</w>
194 1</w>
sha pe</w>
ay a</w>
de par
mon t</w>
cre ation</w>
identi fied</w>
ro of</w>
jun ction</w>
cent u
con sci
ul ed</w>
n -
illino is</w>
ri ce</w>
expan ded</w>
re comm
194 6</w>
p .</w>
am az
br and</w>
h ong</w>
adv is
trou ble</w>
provi ding</w>
ti mat
de pic
dra ft</w>
dru g</w>
ri er</w>
3 6</w>
organiz ations</w>
195 6</w>
new ly</w>
olym pic</w>
ster y</w>
j im</w>
resul ted</w>
ber lin</w>
figu res</w>
gen cy</w>
insp ired</w>
bo b</w>
si mon</w>
be at
lieuten ant</w>
allow s</w>
mis sing</w>
answ ered</w>
t ai
li a</w>
th um
es ses</w>
dise ase</w>
tro pical</w>
premi er</w>
re asons</w>
surpri sed</w>
archit ecture</w>
semi -
attac ks</w>
bil e</w>
lo ts</w>
su spec
o re
i -
m o</w>
gi e</w>
k ol
champi ons</w>
avo id</w>
y e</w>
con fi
c alls</w>
un known</w>
b led</w>
distric ts</w>
dri ving</w>
v it
vehi cle</w>
re duced</w>
bar ely</w>
w ear</w>
san ta</w>
audi ence</w>
b ass
connec tion</w>
ste ve</w>
coun ter</w>
andre w</w>
no on</w>
poli tics</w>
ex cep
com pos
er ic</w>
medic ine</w>
br ad
dom es
cric ket</w>
atlan tic</w>
inter view</w>
de an</w>
ton gue</w>
w ine</w>
po st-
enti rely</w>
ar gent
opport unity</w>
logi st</w>
ir a
plu s</w>
revol ution</w>
vie t
ear- old</w>
ak es</w>
convers ation</w>
nor th-
scri pt</w>
gu est</w>
cle an</w>
nom inated</w>
liber al</w>
supp ly</w>
fic tion</w>
et te</w>
bow l</w>
sm oo
s .
jaz z</w>
193 9</w>
ric s</w>
in sur
op e</w>
te ach
194 3</w>
ing er</w>
w .</w>
star ing</w>
ceme tery</w>
comb at</w>
k ong</w>
devel op</w>
ri de</w>
x -
n am</w>
fl at</w>
six th</w>
n ick
exi sting</w>
a qu
sch ed
e at</w>
195 8</w>
dr in
he y</w>
tra dition</w>
195 0</w>
fin ding</w>
cr y
vo tes</w>
3 4</w>
ob serv
herit age</w>
per forming</w>
c ells</w>
ch ron
ex pe
f li
cir cle</w>
g on
christ mas</w>
appar ently</w>
tra ins</w>
exi stence</w>
mass ach
f an</w>
fran k
st al
success fully</w>
quar ter
di pl
gr ace</w>
sc ar
inter net</w>
f ting</w>
ec e</w>
h .</w>
195 9</w>
tra il</w>
rec ep
massach use
hol e</w>
op position</w>
3 8</w>
ali ties</w>
j o</w>
h y</w>
m ou
pu r</w>
rug ged</w>
remember ed</w>
194 7</w>
k ur
cro ssed</w>
6 th</w>
har b
represent atives</w>
ar ity</w>
f ans</w>
loc ked</w>
h l</w>
mil l</w>
ent ry</w>
thre w</w>
arth ur</w>
massachuse tts</w>
y an</w>
h em
j ar
resul ting</w>
col or
4 0
cro ss
fac tory</w>
educ ational</w>
the me</w>
f m</w>
sh ou
wor e</w>
sp iri
twel ve</w>
a o</w>
rest ric
illu str
heavi ly</w>
de sk</w>
195 7</w>
th in</w>
apart ment</w>
adv ent
t ony</w>
mr s.</w>
lear n</w>
offici als</w>
at o
ci ans</w>
cro wn</w>
stan ds</w>
sci ences</w>
interest ed</w>
cre ating</w>
gh o
adver ti
dipl om
le w
con te
timat ely</w>
stre ets</w>
mess age</w>
war ri
ri son</w>
re ality</w>
respon si
sh ore</w>
authori ties</w>
v ice</w>
din ner</w>
el a</w>
y e
- up</w>
employ ed</w>
intelli gence</w>
bi an</w>
stre t
un cle</w>
citiz ens</w>
sel ling</w>
p ack
phi a</w>
fa il
represent ative</w>
succee ded</w>
worl d
ey e
ta ining</w>
har v
fu n</w>
le gi
vis ited</w>
la wy
comp on
wer en</w>
re as
can cer</w>
f low</w>
g an
cat ch</w>
ol dest</w>
me tr
de ter
dr am
inj ury</w>
de ser
relati vely</w>
star ts</w>
pres ents</w>
cy cle</w>
oppo site</w>
ad mir
fo x</w>
frequ ently</w>
lab our</w>
be sides</w>
ag gre
j ec
7 th</w>
regi ons</w>
hil ls</w>
lab or</w>
cor respon
performan ces</w>
paki stan</w>
sp ac
min ne
sch em
ban ds</w>
munici pal</w>
quar ter</w>
un k</w>
er c
x ing</w>
lad el
phi ladel
s burg</w>
n i</w>
ni ght
v ements</w>
ti li
achi ev
ti er</w>
st am
classi c</w>
chec k</w>
constitu tion</w>
ta yl
writ ers</w>
achi eved</w>
n ate</w>
attemp ted</w>
ssi ons</w>
el i</w>
tar get</w>
b ai
alter native</w>
h ers</w>
wor ry</w>
w ic
tra ined</w>
sun day</w>
x i</w>
gr ounds</w>
d d
ni c</w>
ver sions</w>
j im
phi l
tor onto</w>
perman ent</w>
b -
s or</w>
w w
materi als</w>
on tari
ir a</w>
195 5</w>
brea king</w>
d v
w ay
u ss</w>
north west</w>
mo tor
jo ining</w>
der son</w>
g au
ba th
go ti
gall ery</w>
sk i
refer ence</w>
spiri t</w>
r hy
fr ame</w>
tur k
bri d
b ited</w>
w ri
can not</w>
a bu
stati sti
mar ks</w>
imperi al</w>
4 2</w>
f alling</w>
inv ited</w>
wea ther</w>
tim ate</w>
ontari o</w>
ne ther
b ent</w>
l as
re bel
and -
195 2</w>
philadel phia</w>
ob tained</w>
sym bo
be t</w>
conserv ative</w>
sw im
re action</w>
cin em
be ar</w>
m assi
prepar ed</w>
imple ment
g ru
sigh ed</w>
and y</w>
d son</w>
lau gh</w>
con sequ
c ool</w>
bron ze</w>
pl ate</w>
bro w
4 8</w>
cham ber</w>
pi lot</w>
je sus</w>
sh ment</w>
tayl or</w>
squ ad</w>
categ ory</w>
mis sed</w>
qui e
bb ing</w>
p ack</w>
braz il</w>
3 7</w>
doub t</w>
prev ent</w>
di oc
ar rested</w>
back ground</w>
an ing</w>
op posed</w>
trans fer</w>
pea k</w>
artic les</w>
thous and</w>
brig ade</w>
form al</w>
swe dish</w>
c -
ing -
w ag
194 9</w>
f are</w>
mo bile</w>
vi sible</w>
orchestr a</w>
pul ling</w>
mar y
man s</w>
s na
wh ere
re ver
z ar
classi cal</w>
m ble</w>
inter ior</w>
co ordin
com mo
dis ci
m att
a p</w>
con dition</w>
s word</w>
an th
kis sed</w>
attemp ts</w>
n in
aband oned</w>
h amp
kore a</w>
str at
eff ective</w>
tor al</w>
c he</w>
cri tic
att or
in n</w>
gu ards</w>
enti tled</w>
1 1
re la
appro ved</w>
bil lion</w>
r are</w>
en cies</w>
re ar</w>
fun d</w>
control led</w>
environ mental</w>
centu ries</w>
a side</w>
vill ages</w>
shar p</w>
op ini
p ad
195 4</w>
per form</w>
f ame</w>
de stro
adv oc
subsequ ent</w>
wor se</w>
pic tures</w>
goo d
ne goti
em bar
gre y</w>
sou theast</w>
brief ly</w>
har ry</w>
he ight</w>
dec or
as king</w>
econom y</w>
du ty</w>
g li
spe ech</w>
wil son</w>
show ing</w>
o v</w>
j ason</w>
great est</w>
fun ding</w>
tou ched</w>
n on</w>
re sear
other wise</w>
ter ing</w>
gr am
mal ay
r ag
coo per
bri an</w>
lo ad</w>
ori gin</w>
car rying</w>
195 3</w>
su sta
hun ter</w>
won der</w>
conven tion</w>
beli ev
ul timately</w>
vehi cles</w>
i si
gro wn</w>
na sty</w>
star ring</w>
tran si
bri ef</w>
l ink</w>
battali on</w>
f on
mar ke
e pi
po ses</w>
ki e</w>
inv a
nu clear</w>
deta ils</w>
met res</w>
tru ck</w>
en ess</w>
ssi ve</w>
b ay
s mar
alli ance</w>
qu o
tow ns</w>
h ate</w>
e es</w>
sp an</w>
tou ch
e ks</w>
ad ult</w>
ph ase</w>
sub stan
cha in</w>
5 5</w>
pre c
communi st</w>
g arian</w>
ex tra</w>
cop ies</w>
v o</w>
cra zy</w>
commis sioned</w>
bill board</w>
k on
d ating</w>
8 -
under standing</w>
al an</w>
disp lay</w>
c ell
s wal
lar s</w>
n ag
stru ck</w>
col lap
ra m</w>
sh rugged</w>
promo tion</w>
dark ness</w>
clo sely</w>
sar ah</w>
cau sing</w>
exi st</w>
won dered</w>
4 1</w>
advant age</w>
passeng er</w>
s u</w>
g ged</w>
con stan
te dly</w>
t us</w>
ti ed</w>
dang erous</w>
l as</w>
gra ph</w>
di ag
fami liar</w>
expla in</w>
in ner</w>
at ures</w>
19 18</w>
3 ,
r ough
suppor ting</w>
i ds</w>
la p</w>
f an
any more</w>
ri d</w>
fac ulty</w>
conflic t</w>
ch in</w>
g ently</w>
an gry</w>
t ask</w>
8 5</w>
ish es</w>
sou th-
stat ement</w>
pre dic
ide as</w>
conta ined</w>
u g
sli d</w>
program me</w>
fin ds</w>
rec ru
americ ans</w>
ad mitted</w>
sh i</w>
woo den</w>
7 -
3 00</w>
195 1</w>
br inging</w>
colon el</w>
ex ter
ch el
laun ch</w>
flow ers</w>
pro ved</w>
ry an</w>
s now</w>
exten sive</w>
viol ence</w>
nether lands</w>
gr in
bi li
disp la
some where</w>
8 th</w>
rol ling</w>
an ni
tom or
v am
ra pi
wil d
195 0s</w>
quali fied</w>
polit an</w>
fre sh</w>
si m
br un
incre asing</w>
te en
an ds</w>
?? ??</w>
p ha
respec t</w>
world wide</w>
inter nal</w>
mer ged</w>
ang le</w>
pe t</w>
th ri
recei ving</w>
desi re</w>
al b
so cc
metho ds</w>
liter ary</w>
clim ate</w>
public ation</w>
d d</w>
ab ilities</w>
off ices</w>
z y
her o
specific ally</w>
b its</w>
ad dress</w>
cho se</w>
se g
socc er</w>
stu di
appro pri
c at</w>
4 7</w>
fir ed</w>
nor theast</w>
foun ding</w>
ken ne
docum entary</w>
religi on</w>
applic ation</w>
s al</w>
k am
ox ford</w>
il a</w>
sop hi
b ass</w>
legisl ative</w>
don ald</w>
stri ke</w>
re pu
193 6</w>
concer ned</w>
b and
ro ber
do or
in ity</w>
hand le</w>
3 9</w>
desp er
sig nal</w>
identi ty</w>
hol der</w>
stu ff</w>
conta ining</w>
be y</w>
m ate</w>
s ounded</w>
ca the
li ons</w>
ho li
ex press</w>
193 8</w>
in et</w>
regar ding</w>
h all
com pla
ban ks</w>
op pon
9 th</w>
to t
ar en</w>
tre as
pain ted</w>
dra wing</w>
poe try</w>
f ant
investi gation</w>
pro to
maxim um</w>
pat rick</w>
v ul
emp ha
philosop hy</w>
cred ited</w>
cir cum
crimin al</w>
st able</w>
dav is</w>
al co
week ly</w>
den s</w>
we t</w>
sk ills</w>
tomor row</w>
chil d
ch ol
in er</w>
wra pped</w>
oran ge</w>
conv inc
bed room</w>
sou ght</w>
con sum
stand ards</w>
swe den</w>
po pe</w>
kore an</w>
sing ing</w>
hear ing</w>
bure au</w>
typic al</w>
e. g.</w>
p ir
presid ential</w>
fa ith</w>
l ing
b one</w>
spo ken</w>
sec tor</w>
chri st</w>
certain ly</w>
exhibi tion</w>
def ence</w>
institu tions</w>
cor n
chem ical</w>
low -
4 00</w>
restaur ant</w>
step hen</w>
sched uled</w>
ke y
s ell</w>
evi l</w>
consi sted</w>
gro w</w>
dis co
ch en
tre ated</w>
k id</w>
thro w</w>
h its</w>
dr al</w>
kne es</w>
che ek</w>
b ap
t ton</w>
differ ence</w>
some how</w>
temper ature</w>
im ages</w>
can al</w>
provin cial</w>
bir th
d ged</w>
fin ishing</w>
r ated</w>
192 0</w>
comfor table</w>
sha ped</w>
exc ell
g al</w>
lan ce</w>
nar ro
hi red</w>
shoo ting</w>
4 9</w>
as sumed</w>
ly n
ma ke
un less</w>
w ers</w>
sur name</w>
ve ter
expan sion</w>
agricul tural</w>
franc is</w>
consi der</w>
educ ated</w>
ma p</w>
po cket</w>
w ned</w>
hop ed</w>
le i
acci dent</w>
cu ri
plan et</w>
after noon</w>
9 5</w>
nar row</w>
ti le</w>
it ely</w>
t z</w>
lan ding</w>
te enth</w>
proper ties</w>
experi enced</w>
p her</w>
st ric
sta ke</w>
pas ses</w>
ha y
ea u</w>
d n
str ate
princ ess</w>
cha e
land sc
struc tures</w>
fashi on</w>
ner v
gre g
loc ations</w>
exam ples</w>
bu ff
develop ing</w>
sk y
regi stered</w>
eng aged</w>
si zed</w>
pi ano</w>
sel s</w>
cap e</w>
se ssion</w>
br ac
st um
neg ative</w>
ric al</w>
inci dent</w>
i. e.</w>
cre dit</w>
influ enced</w>
domes tic</w>
u de</w>
re present</w>
di men
dr a</w>
electr onic</w>
g ent</w>
reti rement</w>
b all
et c</w>
4 6</w>
ch ers</w>
sc ra
lew is</w>
f en
cerem ony</w>
appoin tment</w>
fu el</w>
chang ing</w>
bu y</w>
hun g</w>
hor ses</w>
r al
in ations</w>
mil ler</w>
fun ds</w>
se min
est er
p m</w>
list en</w>
wor ried</w>
conver ted</w>
fil l</w>
mi x</w>
strate gi
extre m
val ent</w>
5 2</w>
studi os</w>
concer n</w>
m -
communic ation</w>
actu al</w>
at tribu
co at</w>
hom es</w>
deri ved</w>
l inc
e du
quie tly</w>
thre at</w>
hel ping</w>
establi shment</w>
fail ure</w>
4 3</w>
ep h
ma il</w>
bi e</w>
communic ations</w>
ri dge</w>
pi one
ll ery</w>
broadca sting</w>
l .</w>
surr ounded</w>
commis sion
pre gn
fre der
se t
k or
con test</w>
po t
pu tting</w>
i tion</w>
shoc k</w>
no tice</w>
regar ded</w>
s ale</w>
produc ing</w>
we dding</w>
woo ds</w>
neighbor hood</w>
pati ents</w>
or tho
ly rics</w>
wil ling</w>
equ al</w>
bud d
in spec
treat y</w>
19 19</w>
char ged</w>
u -
on ing</w>
si ck</w>
dec ades</w>
no ise</w>
scen es</w>
sol ved</w>
s lu
func tions</w>
ir s</w>
193 7</w>
t at
kh an</w>
a str
bac hel
att ached</w>
camer a</w>
dro ve</w>
in ess</w>
fr ag
pap ers</w>
lou d</w>
is a
don e
archit ect</w>
la m</w>
val u
teach ers</w>
under stood</w>
jo se</w>
mexic an</w>
cry st
survi ved</w>
o bli
south west</w>
chap el</w>
circu it</w>
gi ant</w>
mat t</w>
sh op
o tt
in habit
co ast
br a</w>
resi stance</w>
de bu
ly wood</w>
tan k</w>
aff ected</w>
ow ners</w>
comm on
ob served</w>
ak a</w>
represent ing</w>
c ei
engine er</w>
metro politan</w>
nor we
ex erc
han g</w>
stu pid</w>
ash es</w>
arran g
wat ers</w>
fac ing</w>
ac cept</w>
de sh</w>
squ ee
193 0</w>
ac cur
tion ing</w>
li p
in done
di smis
contribu ted</w>
in ch</w>
17 8
j r</w>
hi dden</w>
ra bb
m r</w>
6 6</w>
d it
re fers</w>
lead s</w>
fi xed</w>
titu de</w>
h ed</w>
' i</w>
5 1</w>
bap ti
que ens
coll ected</w>
sub si
19 17</w>
an n</w>
mid d
adv ance</w>
si sters</w>
u el</w>
sof tly</w>
sp end</w>
athle tic</w>
au to
down town</w>
ad ul
thous ands</w>
linc ol
program ming</w>
multi -
dem and</w>
k ha
prin t</w>
recogni tion</w>
jour ney</w>
cra w
the sis</w>
main tained</w>
p ric
pleas ure</w>
pro pos
con vic
ar chae
-y ear-old</w>
import ance</w>
s ound
re ci
193 5</w>
com o
expres sed</w>
p ale</w>
occu r</w>
z o</w>
prof it</w>
compos er</w>
it er
bud get</w>
resid ence</w>
cathe dral</w>
c it
argu ed</w>
g ar</w>
pre ten
ob ject</w>
ro ck
occur s</w>
is s
em ma</w>
comb ination</w>
k ent
w ins</w>
bre ath
sto res</w>
extrem ely</w>
b rick</w>
minne so
se -
we b</w>
progre ss</w>
cro ssing</w>
gr ass</w>
hun dre
mo sco
ligh t
el em
er son</w>
co al</w>
19 14</w>
r ho
le v
y i
ef s</w>
g le</w>
whe el</w>
institu tion</w>
employ ees</w>
sp here</w>
cap able</w>
inj ured</w>
con qu
publi shing</w>
inde ed</w>
m ly</w>
poli s</w>
st ab
7 2</w>
tre at</w>
oni an</w>
wor n</w>
pa int
mo tor</w>
193 3</w>
hop ing</w>
a f</w>
dec re
je ws</w>
di am
ten nis</w>
bl in</w>
massi ve</w>
t ap
sti n</w>
sc ent</w>
minneso ta</w>
pri est</w>
sh er</w>
it ems</w>
b ren
car ds</w>
b ic
bur ned</w>
emer gency</w>
vis ual</w>
ca a</w>
ac c
sour i</w>
ja ke</w>
chur ches</w>
attor ney</w>
al bert</w>
mom ents</w>
jan e</w>
en de
as su
tan e
weap on</w>
sur vey</w>
ther ap
hi re</w>
su peri
dev ice</w>
bu sh</w>
hi de</w>
norm ally</w>
mis souri</w>
cal cul
ap preci
mel bourne</w>
consi st
mosco w</w>
con secu
el and</w>
x on</w>
constitu ency</w>
ch ase</w>
wrest ling</w>
for th</w>
norwe gian</w>
fore ver</w>
192 9</w>
beau ty</w>
an gel</w>
com ic</w>
fac tor</w>
requ est</w>
d at
po et</w>
tur key</w>
sec tions</w>
sh er
v is</w>
cre te</w>
inhabit ants</w>
journ alist</w>
soli d</w>
be c</w>
protec ted</w>
sh -
musli m</w>
p he
big gest</w>
re in
y l</w>
sel ection</w>
d p</w>
bro ad</w>
satur day</w>
tun nel</w>
eng ines</w>
cam bridge</w>
assi st</w>
ad y</w>
re l</w>
g on</w>
t ations</w>
coloni al</w>
r ach
low ed</w>
lo como
portu gu
p ink</w>
care fully</w>
candi dates</w>
stan ces</w>
mon o
purch ase</w>
appear ing</w>
ant oni
in nov
cab inet</w>
har mon
t ant</w>
se es</w>
uni versi
nor way</w>
es sion</w>
invest ment</w>
man chester</w>
le ans</w>
f allen</w>
bo ar
appro ached</w>
of -
ec ho
re ments</w>
ann y</w>
men tion</w>
po t</w>
w ounded</w>
establi sh</w>
gg ing</w>
organis ation</w>
indi ana</w>
disci pl
7 6</w>
thir ty</w>
san c
bachel or</w>
6 2</w>
char lie</w>
le y
im possible</w>
bel t</w>
wal ter</w>
i v</w>
ra ise</w>
arti llery</w>
for get</w>
dioc ese</w>
as ka</w>
s ni
192 8</w>
f ra
her o</w>
w right</w>
re signed</w>
193 4</w>
dv d</w>
ph ar
hi p</w>
descri p
feel ings</w>
me ters</w>
fe ed</w>
pu sh</w>
5 4</w>
ch at
do gs</w>
shi fted</w>
ph en
pla yo
dau gh
win d
er n
queens land</w>
am at
ad o
l ag
s and</w>
bur ning</w>
intro duction</w>
under ground</w>
impro ved</w>
friend ly</w>
re se
wis con
ar ena</w>
reali ze</w>
se v
transpor tation</w>
7 7</w>
inva sion</w>
fla g</w>
color ado</w>
tu be</w>
mat the
ter r
sevent h</w>
sto l</w>
cour ses</w>
h ori
ob jects</w>
in c</w>
person nel</w>
th- century</w>
ti red</w>
ev a</w>
promis ed</w>
le on</w>
us ers</w>
de vi
ev al</w>
dis appeared</w>
ru led</w>
re form</w>
consecu tive</w>
sha king</w>
po ver
ordin ary</w>
sat ell
vers ary</w>
si e
dy nasty</w>
the tic</w>
val ues</w>
h ec
applic ations</w>
c lock</w>
om an</w>
is ol
in no
pi res</w>
9 -
ki m</w>
in au
gr in</w>
o reg
sk ir
ari z
kni fe</w>
prote in</w>
spir it
min ing</w>
5 6</w>
week end</w>
arran ged</w>
0 0
viet nam</w>
paint ings</w>
st ones</w>
t ag
cal m</w>
confu sed</w>
pe ter
p ine</w>
reg ularly</w>
impro ve</w>
inst alled</w>
revol u
ro s
en na</w>
mir ror</w>
behavi or</w>
dru m
gui de</w>
ar ch</w>
v ey
pau sed</w>
fran chi
9 9</w>
6 3</w>
n fl</w>
employ ment</w>
con cep
ten nes
ly n</w>
ca ve</w>
ow a</w>
192 4</w>
s ri</w>
c ry</w>
g ated</w>
w are</w>
p om
repe ated</w>
n ap
portugu ese</w>
f ear
exten sion</w>
il le</w>
clo sing</w>
cau ses</w>
s z
6 7</w>
mag ne
off ering</w>
7 8</w>
conclu ded</w>
ab or
por ts</w>
mi li
b au
co sts</w>
sm ell</w>
i ve</w>
u d</w>
deli vered</w>
some what</w>
be er</w>
gra pher</w>
con tain</w>
k u</w>
18 th</w>
distingu ished</w>
le tting</w>
p lot</w>
goo ds</w>
turk ish</w>
di r
strat eg
st ating</w>
responsi bility</w>
ru sh</w>
h n</w>
fi ghter</w>
wiscon sin</w>
sig ns</w>
del eg
f ter</w>
promo te</w>
ri e</w>
eff ec
d ag
ri o</w>
tennes see</w>
5 3</w>
6 1</w>
l t
atten d</w>
ham il
obvi ously</w>
a si
consi sting</w>
pu p
den i
sha dow</w>
is tics</w>
de al
d c</w>
war s</w>
mo th</w>
f .</w>
hon or
brea thing</w>
pr o</w>
stre ss</w>
us er</w>
accomp ani
uni verse</w>
192 7</w>
sen si
mary land</w>
sub ur
inter rup
wea k</w>
philipp ines</w>
st ages</w>
mean while</w>
5 8</w>
it ated</w>
oper ate</w>
lawy er</w>
193 2</w>
pal m</w>
te a</w>
ber n
die go</w>
threat ened</w>
distinc t</w>
mb led</w>
de struc
ri vers</w>
distribu ted</w>
sh ell</w>
ff ed</w>
fle w</w>
sti ck</w>
eg y
how ard</w>
l li
ke ys</w>
192 2</w>
separ ated</w>
lo an</w>
ke vin</w>
logi es</w>
cap ture</w>
cri sis</w>
cri tici
ab ad</w>
the y
war ning</w>
histori an</w>
19 12</w>
n caa</w>
b ond</w>
ash ing</w>
meas ure</w>
pro per</w>
part nership</w>
ju mped</w>
main tain</w>
6 8</w>
de t
compe te</w>
accu sed</w>
ven e
gla d</w>
interest s</w>
wor st</w>
patter n</w>
agricul ture</w>
mi x
smil ing</w>
ju mp</w>
il er</w>
not ably</w>
ac tors</w>
bil ly</w>
fa ster</w>
moun ted</w>
193 1</w>
choo se</w>
cas h</w>
lu x
nat ur
lan ded</w>
mor gan</w>
commit ted</w>
op en
av a</w>
v or</w>
opini on</w>
degre es</w>
universi ties</w>
192 1</w>
oreg on</w>
el even</w>
con stant</w>
ca p</w>
je an</w>
ati cally</w>
pl ed</w>
ici de</w>
car din
drag on</w>
favor ite</w>
v ity</w>
ad jac
in son</w>
4 ,
- in-
u tili
dec ade</w>
agu es</w>
ta ste</w>
b low
dam aged</w>
5 7</w>
accompani ed</w>
techni ques</w>
resc ue</w>
soldi er</w>
the a
arri val</w>
dri ven</w>
egy pt</w>
bu ck
sh ops</w>
musi cians</w>
sw iss</w>
swit zer
mo re
pain ter</w>
man ner</w>
ri gh
dep loy
ve ge
8 6</w>
sion ally</w>
ariz ona</w>
adjac ent</w>
bo ards</w>
ag ree</w>
ear th
sing ap
antoni o</w>
7 4</w>
le an</w>
sol e</w>
ou ts</w>
switzer land</w>
dang er</w>
li qu
assi stance</w>
na vi
hang ing</w>
jor dan</w>
mar k
pers ons</w>
divi sions</w>
disco very</w>
cour ts</w>
7 1</w>
lu m</w>
sen ator</w>
produc tions</w>
sam uel</w>
bo ats</w>
hundre ds</w>
l en</w>
direc tors</w>
lu ke</w>
star red</w>
seri ously</w>
enjo yed</w>
singap ore</w>
mi d</w>
min a</w>
de ad
192 5</w>
c c</w>
nar r
6 9</w>
char ges</w>
shi ft</w>
je ff
p it</w>
b ach</w>
log an</w>
fif teen</w>
n an</w>
5 9</w>
rough ly</w>
rhy th
b ones</w>
v ine</w>
head ing</w>
lin e
sli pped</w>
ther ine</w>
19 10</w>
gab ri
vir tu
ad ditionally</w>
mis sions</w>
b in</w>
sud den</w>
hom e
anth ony</w>
cla y</w>
anni versary</w>
sn apped</w>
ri ding</w>
ac he</w>
be gun</w>
kel ly</w>
descri bes</w>
kent u
19 16</w>
ro ger</w>
que bec</w>
ja w</w>
a a</w>
requ ire</w>
bath room</w>
7 3</w>
par king</w>
al ab
deman ded</w>
num ber
bal ance</w>
tal ked</w>
rach el</w>
list ening</w>
rac ial</w>
win ners</w>
daugh ters</w>
192 6</w>
passeng ers</w>
ru s</w>
n ine
bran ches</w>
bu sy</w>
tru ly</w>
hor ror</w>
spon s
m ps</w>
particip ate</w>
d in</w>
sen s
sa ved</w>
8 8</w>
shoo t</w>
19 15</w>
imag ine</w>
ne st</w>
ad ju
ra i
w all
t ons</w>
ger y</w>
wal ker</w>
at tered</w>
stud ying</w>
coun c
insur ance</w>
g ang</w>
busin esses</w>
bu ll
enter pri
ici ous</w>
cont ex
voc als</w>
m al</w>
appe al</w>
con crete</w>
matt ers</w>
ac commo
pre hen
192 3</w>
deci de</w>
tab les</w>
o on</w>
defin itely</w>
isl amic</w>
gen der</w>
7 9</w>
k night</w>
contr ast</w>
al ber
expe dition</w>
bo t</w>
desig ns</w>
respon ded</w>
termin al</w>
fe els</w>
an a
ir o</w>
kentu cky</w>
ch -
phili p</w>
c ous
do x</w>
ent ering</w>
mar gar
ha r</w>
le on
defen sive</w>
di vor
pla in</w>
si de
193 0s</w>
. com</w>
sub stitu
cro ati
pro mp
e sp
re place</w>
hol lywood</w>
ad el
nation ally</w>
lincol n</w>
f at
re duce</w>
gi ft</w>
fav or</w>
rec re
ro l</w>
occa sionally</w>
di ary</w>
photo graph
er o</w>
sec ure</w>
di sa
prin ted</w>
eth nic</w>
sh eri
de ath
we igh
ari st</w>
univers al</w>
hamil ton</w>
sal v
keep er</w>
am y</w>
sh a</w>
docum ents</w>
earli est</w>
pp i</w>
p .
leg is
f ishing</w>
lin ked</w>
ne tt</w>
o b</w>
resid ential</w>
grand father</w>
re turns</w>
w ich</w>
smo ke</w>
pover ty</w>
ro cks</w>
an derson</w>
fl ag
ad ding</w>
after wards</w>
wan ting</w>
col e</w>
lu cky</w>
ar men
st eam</w>
k es
austri a</w>
cous in</w>
ro y</w>
schem e</w>
te sting</w>
je ff</w>
a e
l st</w>
re v
d all
deser t</w>
ab sor
19 00</w>
gl as</w>
clar k</w>
tran sm
vic tor</w>
i g</w>
hou ston</w>
gu s</w>
bro w</w>
th ru
con su
he i
r age</w>
la h</w>
ra y
dis gu
sur ren
fin ance</w>
child hood</w>
g ay</w>
5 ,000</w>
ho t
thea stern</w>
dec k</w>
survi ve</w>
20 s</w>
continu ing</w>
common wealth</w>
ar ab</w>
mon tre
parliam entary</w>
ma c</w>
beli ef</w>
s c</w>
li ft</w>
leg es</w>
tu rer</w>
b eng
oper ates</w>
exi sted</w>
out standing</w>
ni chol
lu ci
sal em</w>
mel o
scrip tion</w>
g n</w>
re duc
ge st
ori a</w>
g i</w>
cre ative</w>
legis lat
pow ered</w>
r ating</w>
re jected</w>
char lo
amat eur</w>
mon a
c ran
r ar
obvi ous</w>
ti s
hy po
col om
in y</w>
gh tened</w>
v ali
pati ent</w>
meas ures</w>
tor ate</w>
h r
- based</w>
ch y</w>
ju di
d ent
whi lst</w>
deter mine</w>
strateg y</w>
interest ing</w>
mp tion</w>
musi cian</w>
offen sive</w>
mo de</w>
in her
associ ate</w>
rout es</w>
ili an</w>
ch ant</w>
d na</w>
re sp
d ents</w>
du ties</w>
sev ere</w>
gra ve</w>
coast al</w>
sequ ence</w>
make up</w>
so il</w>
sal t</w>
pra ised</w>
gre ece</w>
sh ouldn</w>
hori z
str ing</w>
vic es</w>
ur s</w>
fle sh</w>
pur poses</w>
sle eping</w>
coun ties</w>
hun t</w>
ab s
shi eld</w>
ha i</w>
da ve</w>
stor age</w>
b les</w>
movi es</w>
op tion</w>
ed -
isra eli</w>
ti m</w>
bro ok
bot tle</w>
schol ars</w>
un a</w>
mo vements</w>
wav es</w>
dan cing</w>
o sc
form ally</w>
secon d-
a j
swim ming</w>
col ony</w>
o k</w>
mar ry</w>
ag a</w>
appro val</w>
wai st</w>
alco ho
gol f</w>
fru str
vis itors</w>
in k
mp ing</w>
t oo
victi ms</w>
public ations</w>
lou isi
i .</w>
est ed</w>
e u</w>
fac tors</w>
ali zation</w>
af gh
sing le-
dre ams</w>
com position</w>
repu tation</w>
de s
li v
e ing</w>
de mon</w>
pal est
tro phy</w>
ac id</w>
h at</w>
mem ories</w>
conserv ation</w>
premi ered</w>
s r</w>
re nov
pr on
ann ah</w>
stu ck</w>
dou glas</w>
gi ble</w>
d ying</w>
n au
c and
b y-
v as
ber ry</w>
en ab
sha ke</w>
vo i
am bass
whe el
un usual</w>
9 2</w>
c m</w>
en sure</w>
chri stop
rel ative</w>
in qu
po em</w>
mar kets</w>
sub -
gather ed</w>
th ic</w>
k an</w>
laugh ing</w>
member ship</w>
cl er
wit ne
rapi dly</w>
k .</w>
pe ti
cle ared</w>
equi valent</w>
sub jects</w>
ti p</w>
transl ated</w>
smoo th</w>
go ds</w>
vis iting</w>
am ong
ad d</w>
te sts</w>
c able</w>
gor don</w>
f lan
8 2</w>
an o
louisi ana</w>
birth day</w>
se as</w>
dic tion</w>
ma sters</w>
rest ored</w>
indic ated</w>
d r</w>
emer ged</w>
freder ick</w>
under -
alex and
sp ending</w>
among st</w>
8 1</w>
9 6</w>
com ics</w>
ne ver
medi eval</w>
th ur
t age</w>
tem porary</w>
col li
prison ers</w>
i z
de tro
em an</w>
benef it</w>
ali a</w>
dru gs</w>
pri x</w>
missi ssi
depen ding</w>
al ice</w>
com e
fig ured</w>
gar dens</w>
19 11</w>
grin ned</w>
in ts</w>
sig ning</w>
the ore
fi ve-
re ign</w>
elem entary</w>
possi bility</w>
schol ar
roo ts</w>
any where</w>
enjo y</w>
physi cs</w>
hom a</w>
ira q</w>
be ating</w>
sa il
vi an</w>
9 8</w>
im pres
gol d
debu ted</w>
appropri ate</w>
no d</w>
cap it
hun ting</w>
fre sh
be e
19 13</w>
spea ker</w>
mi ch
ri ses</w>
mo ves</w>
re solution</w>
pro ve</w>
al ties</w>
p en</w>
di son</w>
john ny</w>
fru it</w>
ke e</w>
p ure</w>
fortun ately</w>
e ating</w>
che eks</w>
glan ce</w>
ti ous</w>
i owa</w>
p is
to x
blu es</w>
g ates</w>
recor dings</w>
sc ared</w>
c i</w>
comp ani
8 4</w>
bloc ks</w>
guil ty</w>
6 0
gen ous</w>
chem i
ac ks</w>
ill a</w>
re con
k ate</w>
lau ghter</w>
bur st</w>
ma ker</w>
???? ?</w>
ph r
elec toral</w>
detro it</w>
econom ics</w>
co ol
part ners</w>
spec tive</w>
mari e</w>
sho es</w>
c assi
mi a</w>
sain t-
clo thing</w>
. a.</w>
re gre
ju an</w>
exp ect</w>
neu tr
char ts</w>
a than</w>
drin king</w>
ro ws</w>
manufac turing</w>
e than</w>
gi um</w>
alab ama</w>
sym ph
ev alu
e ties</w>
g y</w>
montre al</w>
commun e</w>
haw ai
fro wned</w>
cav al
k az
el ement</w>
es cor
co ali
re presents</w>
sug ar</w>
eri e</w>
ed ly</w>
wel come</w>
stoc k
tec h</w>
190 8</w>
bo ss</w>
bi d</w>
an ch
ag ents</w>
concer ns</w>
ok la
ami l</w>
la bel
17 th</w>
pu er
instru ments</w>
at mo
won der
differ ences</w>
k un
y le</w>
c ook</w>
li ver
comp lic
ak i</w>
re tained</w>
jim my</w>
fore sts</w>
et ings</w>
sh ru
lim it</w>
a ke</w>
collabor ation</w>
hor ri
li sts</w>
wea k
gu er
stri p</w>
techni que</w>
8 3</w>
m bling</w>
9 7</w>
bl ast</w>
as ingly</w>
8 7</w>
bac ked</w>
easi er</w>
um s</w>
k ar</w>
jo bs</w>
at -
sen ding</w>
mississi ppi</w>
destro y</w>
de vices</w>
tal ent</w>
s as
signific antly</w>
p lo
su m</w>
f ea
sugge sts</w>
ami e</w>
okla homa</w>
travel ed</w>
8 9</w>
ex po
mut tered</w>
k ick</w>
li s</w>
ro t
auth ors</w>
d ant</w>
vam pires</w>
dan ish</w>
tri be</w>
mo ore</w>
asp ects</w>
conduc t</w>
thou se</w>
mathemati cs</w>
lo sses</w>
a unt</w>
si e</w>
ser ge
satell ite</w>
di str
j ay</w>
ha z
pe tro
adap ted</w>
invol ving</w>
no vels</w>
occup ation</w>
margar et</w>
pen insul
le f
ow nership</w>
fun ny</w>
t ack
tiv ity</w>
lea ther</w>
war t</w>
care ful</w>
contribu tions</w>
cy cl
elec tro
sch edu
9 3</w>
g om
cz ech</w>
shou ted</w>
strong ly</w>
arti stic</w>
inc t</w>
supp lies</w>
ex posed</w>
s son</w>
bl ade</w>
fore head</w>
s ne
ir ing</w>
be an</w>
popul arity</w>
j e</w>
inst ance</w>
schedu le</w>
hi ll
expen sive</w>
ran king</w>
argent ina</w>
su e</w>
w ick</w>
belong ed</w>
adul ts</w>
sur gery</w>
s lam
au t
d t</w>
me ter</w>
ch ess</w>
happ ening</w>
deb ate</w>
mee ts</w>
st en
tot ally</w>
alle l</w>
strugg le</w>
ro ll
st are</w>
cr ash</w>
nerv ous</w>
archit ec
par allel</w>
fil ed</w>
ni ger
recog n
j on</w>
tt i</w>
at i</w>
contro versi
scho ol
fic ations</w>
. d.</w>
peninsul a</w>
eg yp
n ad
hun garian</w>
consi dering</w>
dist ur
marke ting</w>
man age</w>
adv ice</w>
harv ard</w>
ch ann
ce iling</w>
comp il
pass age</w>
k ent</w>
cou ples</w>
ce o</w>
i dae</w>
to ols</w>
shop ping</w>
re new
transl ation</w>
iss ance</w>
gir l
incre asingly</w>
al lied</w>
e ter
den ed</w>
athle tics</w>
budd hi
flow s</w>
dep th</w>
voi vo
c ad
inst all
g lu
in ju
pu shing</w>
col ors</w>
ta x
pan el</w>
m ck
cl ou
matthe w</w>
char ity</w>
sk a</w>
resp ond</w>
d dy</w>
w ished</w>
slo v
di ck</w>
wa ste</w>
ra j
h ated</w>
ex -
r ates</w>
r ough</w>
contin ental</w>
professi on
p an</w>
ra pid</w>
su icide</w>
suff ering</w>
ass ault</w>
cei ved</w>
ul ated</w>
ri ver
so -
fri day</w>
15 0</w>
dall as</w>
classi fied</w>
chu ck
equi pped</w>
ash a</w>
coali tion</w>
vie wers</w>
j ing</w>
perf ec
loo se</w>
labor atory</w>
n ish</w>
ten ance</w>
16 th</w>
hur ric
la sted</w>
du blin</w>
od d</w>
ck er</w>
tw in</w>
se attle</w>
ac le</w>
puer to</w>
ici al</w>
mi ami</w>
consci ous</w>
9 4</w>
car to
he im</w>
pro test</w>
har der</w>
poli cies</w>
ukra inian</w>
f lower</w>
consider able</w>
car ter</w>
exp ec
attrac ted</w>
at om
th ly</w>
gul f</w>
tu m</w>
app le</w>
landsc ape</w>
vo ices</w>
ir d</w>
h -
g ins</w>
sp ell</w>
eigh th</w>
gri p</w>
190 5</w>
lo aded</w>
defe ating</w>
ortho dox</w>
tr act</w>
fol ded</w>
ai m</w>
fac ts</w>
ky o</w>
b ish
thr one</w>
avi ation</w>
superi or</w>
pol e</w>
zer o</w>
hel ic
pro hi
viol ent</w>
charlo tte</w>
8 0
deep ly</w>
re m
suff icient</w>
st ol
legisl ation</w>
ou ter</w>
hi ding</w>
guit arist</w>
al o</w>
mon u
9 1</w>
sol ar</w>
graphi cal</w>
where as</w>
m ir</w>
in nings</w>
law rence</w>
up set</w>
ham mad</w>
pl astic</w>
constitu tional</w>
metr o</w>
alo gue</w>
for cing</w>
stro ke</w>
see king</w>
char ter</w>
gho st</w>
se ek</w>
replac ement</w>
ame ter</w>
ac ked</w>
achi eve</w>
k shire</w>
f ed</w>
legen d</w>
kenne dy</w>
car l</w>
diag no
accoun ts</w>
ch a</w>
franchi se</w>
soci alist</w>
requi res</w>
dis c</w>
ban k
atlan ta</w>
ra ising</w>
car di
ul ation</w>
r h
ed ited</w>
el e</w>
p ants</w>
har ris</w>
k om
ell er</w>
ab bey</w>
as sin
convinc ed</w>
je ans</w>
st akes</w>
den mark</w>
fl ash</w>
immedi ate</w>
ne e</w>
v y
ex tra
tr ading</w>
smar t</w>
190 6</w>
lun ch</w>
col our</w>
is sa</w>
bel gium</w>
san g</w>
extre me</w>
shi r
w ound</w>
cri ed</w>
in stan
gl as
sol ve</w>
ed in
sur ed</w>
cl oud</w>
bom b</w>
f led</w>
ni ghts</w>
neu ro
ma i
practic es</w>
pre vent
rif le</w>
it ted</w>
me etings</w>
gr as
th ed</w>
f ai
ho sts</w>
or leans</w>
cor rid
licen se</w>
j ay
inten se</w>
v ec
the -
bro ws</w>
u pri
correc t</w>
quali fying</w>
fu ck</w>
de pression</w>
spr ings</w>
newspap ers</w>
er ies</w>
scre en
critici zed</w>
industri es</w>
descri be</w>
caval ry</w>
braz ilian</w>
6 00</w>
a ar
n s
sur vey
grad ually</w>
se bas
corpor ate</w>
d ak
or al</w>
broad way</w>
ac u
c on</w>
ch o</w>
wh el
kic ked</w>
ver ing</w>
190 7</w>
ru ss
commission er</w>
connec tic
sc ru
ed it
cont ra
sent ence</w>
use ful</w>
ge on</w>
int ell
190 9</w>
colum n</w>
ves sel</w>
dol lars</w>
p ages</w>
requi rements</w>
comman ded</w>
ott oman</w>
de ar</w>
escap ed</w>
boun dary</w>
i ous</w>
voivo de
r ounds</w>
v als</w>
circum stances</w>
custom ers</w>
indi genous</w>
bor ne</w>
cou ch</w>
ous ness</w>
t es
f ault</w>
se an</w>
vel and</w>
connectic ut</w>
hun gary</w>
deni ed</w>
ta h</w>
desig ner</w>
ul es</w>
monu ment</w>
se th</w>
il legal</w>
org an</w>
be i
critic ism</w>
dec lined</w>
qui si
p ace</w>
ten der</w>
bru ce</w>
inde x</w>
t wit
sc and
aut onom
ar n
tran smis
voivode ship</w>
be ars</w>
por ted</w>
fac tion</w>
success or</w>
sha w</w>
frequ ency</w>
revolu tionary</w>
du st</w>
cri tic</w>
s now
ed die</w>
6 ,
h u</w>
net works</w>
show er</w>
h att
ad mit</w>
ex cu
air e</w>
j ective</w>
celebr ated</w>
na ked</w>
ann er</w>
chemi stry</w>
inter ven
hi sp
1 ,000</w>
par ks</w>
n t</w>
low ered</w>
destruc tion</w>
har t</w>
cinem a</w>
claim ing</w>
for d
b low</w>
ex it</w>
st un
jon athan</w>
bal ti
break fast</w>
cu tting</w>
stret ched</w>
edin burgh</w>
ste ady</w>
ba i</w>
an xi
defin ition</w>
se u
admir al</w>
k h</w>
me at</w>
f ate</w>
ab c</w>
ec o
experi ences</w>
roman tic</w>
propos al</w>
survi ving</w>
in ary</w>
b are</w>
occa sions</w>
ta g</w>
wel sh</w>
ignor ed</w>
dom ain</w>
main tenance</w>
do zen</w>
gu ests</w>
co ck</w>
can cel
cir cul
t esti
ukra ine</w>
fant asy</w>
influ ential</w>
sha dows</w>
ma h
bar on</w>
my ster
modi fied</w>
p ent
is a</w>
ra w</w>
hal f
haw k</w>
hi ps</w>
cl en
au stin</w>
twi sted</w>
by e</w>
psy chi
car bon</w>
pit ts
austri an</w>
tr ag
strategi c</w>
c af
o ak</w>
fu r</w>
gra ham</w>
p av
t amil</w>
te es</w>
kno cked</w>
g are
stra igh
boo k
compon ents</w>
contex t</w>
mar shall</w>
shor t-
qu anti
inf ra
inju ries</w>
mer ely</w>
electric al</w>
cla ire</w>
do cu
spirit ual</w>
con fron
fel low
cl an</w>
con feder
la in</w>
but ter
sty les</w>
medi um</w>
liver pool</w>
sound track</w>
for gotten</w>
in spir
cop y</w>
initi ative</w>
vin ce</w>
si gh</w>
legislat ure</w>
j amie</w>
sc ope</w>
no body</w>
ai med</w>
helic op
cent ers</w>
er t</w>
ti ll</w>
neigh bour
lin d
ambass ador</w>
frank lin</w>
ac re</w>
h s</w>
russ ell</w>
tho logy</w>
strong er</w>
pa th
kne e</w>
fi a</w>
ass assin
se ed</w>
k l
clim bed</w>
cryst al</w>
pea ked</w>
e v</w>
person ality</w>
honor ary</w>
mil ls</w>
12 th</w>
p c</w>
cle veland</w>
re move</w>
mon ster</w>
ad ams</w>
cover age</w>
f** king</w>
bo tt
n ba</w>
re ss</w>
e ded</w>
5 ,
aw a</w>
comm em
d .c.</w>
sp l
uni form</w>
competi tions</w>
jac ket</w>
abs ence</w>
replac ing</w>
t ape</w>
sa x
b ble</w>
k as
happ ens</w>
habit at</w>
excep tion</w>
hosp it
voc al</w>
in der</w>
avo i
electric ity</w>
hy per
bas in</w>
lt d</w>
kill er</w>
ves sels</w>
d less</w>
ann ually</w>
amaz ing</w>
d ation</w>
won dering</w>
fil med</w>
e k
o ts</w>
ser ver</w>
dy nam
malay sia</w>
190 2</w>
hon our</w>
collec tions</w>
mis sion
w en
tem por
luc as</w>
holi day</w>
an ticip
m oo
j essi
in duc
stat ue</w>
rar ely</w>
hom o
p son</w>
ch ro
six -
en coun
busin ess
pro of</w>
st aying</w>
at us</w>
jac ob</w>
med als</w>
cross -
emi ly</w>
f i</w>
portu gal</w>
190 4</w>
au dio</w>
e o</w>
thu si
com fort</w>
rob in</w>
desc end
vi enna</w>
sug gest</w>
ex plan
ent ation</w>
ri val</w>
serv ation</w>
nor man</w>
fal se</w>
fil es</w>
comple tion</w>
spons ored</w>
proces ses</w>
r he
effec tively</w>
to kyo</w>
b ite</w>
bac ks</w>
lu s</w>
proces sing</w>
le ep</w>
revi val</w>
ver sus</w>
tr y
resid ent</w>
is er</w>
o ta</w>
w .
ss a</w>
g ym
10 ,000</w>
con ce
8 00</w>
u a</w>
in ches</w>
sear ching</w>
ambi gu
territ ories</w>
ric o</w>
bar a</w>
christop her</w>
minim um</w>
great ly</w>
mona stery</w>
13 th</w>
or i</w>
ici ency</w>
ru shed</w>
never th
chi ck
warri ors</w>
do s</w>
posse ssion</w>
ac knowle
el der</w>
ther ed</w>
neverth eless</w>
v ast</w>
an no
j et</w>
gl aci
ar o
jo y</w>
way ne</w>
s ch</w>
h r</w>
ma ine</w>
chron ic
balti more</w>
k le</w>
ox y
ran g</w>
t ang
sum mit</w>
perfec tly</w>
en thusi
compe ting</w>
docu ment</w>
sh r
encour aged</w>
10 .
190 3</w>
ey ed</w>
s ad</w>
ag er</w>
mechan ical</w>
har dly</w>
rel ation</w>
ex hau
far mers</w>
po ems</w>
c .
gra b</w>
execu ted</w>
stor y
symbo l</w>
i di
scienti sts</w>
-y ard</w>
le aning</w>
excell ent</w>
ar rest</w>
ari o</w>
bor ders</w>
bad ly</w>
vo ic
grad es</w>
re aches</w>
c ited</w>
g ang
ju ris
nel son</w>
la kes</w>
sing h</w>
mat h</w>
but ton</w>
ch and
c ed
thro wn</w>
musc les</w>
bo x
le ton</w>
we d
broo k</w>
19 20s</w>
ten d</w>
190 1</w>
0 8</w>
exi sts</w>
desc ent</w>
fit ted</w>
in formed</w>
cre ature</w>
integr ated</w>
fun ded</w>
harb or</w>
thom pson</w>
invol vement</w>
domin ated</w>
ch al
om ing</w>
l on</w>
h ence</w>
ren t</w>
as leep</w>
pro file</w>
rest oration</w>
car los</w>
ell i</w>
na zi</w>
mit ch
indone sia</w>
gl en
off -
clo se
commer ce</w>
descrip tion</w>
0 9</w>
adverti sing</w>
produc ers</w>
fif ty</w>
in ha
m ates</w>
hear t
ph a</w>
com prehen
z ane</w>
experim ental</w>
bi ble</w>
g mina</w>
ex act</w>
am p</w>
on ym
ho u</w>
ga p</w>
shar ing</w>
simul tane
advent ure</w>
ge -
architec tural</w>
b ath</w>
le t
ea e</w>
e at
am end
b alls</w>
hel ps</w>
cred its</w>
p seu
per mission</w>
juli an</w>
per su
gri ff
bar s</w>
di al
pho en
te ach</w>
t as
re covered</w>
de e</w>
te sted</w>
vo ting</w>
ab solu
are st</w>
interrup ted</w>
figh ters</w>
em erg
e x</w>
bat tery</w>
ra in
hall way</w>
relation ships</w>
shar es</w>
fi x</w>
thin ks</w>
ben ch</w>
dec line</w>
gradu ating</w>
terri ble</w>
w rec
ea fter</w>
simil arly</w>
as ser
dow ns</w>
la b</w>
mi stake</w>
in fl
thro wing</w>
at t</w>
contro vers
deci sions</w>
c kets</w>
lu ck</w>
dis ney</w>
controvers y</w>
s ke
um es</w>
w ing
t ul
le o</w>
m ack
i um</w>
k im
pregn ant</w>
prac tical</w>
gro ve</w>
bu ll</w>
cl ass
elim inated</w>
cab in</w>
7 ,
roman ia</w>
gl asses</w>
classi fication</w>
nichol as</w>
mer chant</w>
scre amed</w>
conv enti
col leges</w>
emo tions</w>
death s</w>
se ssions</w>
ro w
ste wart</w>
10 th</w>
gene tic</w>
g av
war ren</w>
ten sion</w>
go al
depar ture</w>
vir gin</w>
exter nal</w>
ran ks</w>
bloo dy</w>
a to</w>
li s
ru pt</w>
deep er</w>
p anic</w>
br y
me -
mil k</w>
pre served</w>
schol ar</w>
col ored</w>
po sted</w>
gover nor
youn gest</w>
confu sion</w>
es -
a ked</w>
girl friend</w>
sp er
remin ded</w>
la dies</w>
a sts</w>
15 th</w>
p pi
q i</w>
elev ation</w>
c ers</w>
logi c</w>
jud g
dru ms</w>
r ant</w>
alcoho l</w>
be ar
rele v
j ury</w>
sup pose</w>
el se
progre ssive</w>
liqu id</w>
bac ter
vic e-
discus sion</w>
intell ec
coo per</w>
hel en</w>
batt le
app ly</w>
bak er</w>
hea ven</w>
pitts burgh</w>
competi tive</w>
nov a</w>
pri de</w>
gen re</w>
bl ind</w>
da wn</w>
cul tiv
lim its</w>
m ingham</w>
re luc
domin ant</w>
out put</w>
we i
controversi al</w>
y ours</w>
recomm ended</w>
sc hi
shi p
h ull</w>
- day</w>
e a</w>
oper ational</w>
ati vely</w>
indi ans</w>
statisti cs</w>
m ess</w>
par tly</w>
comm ent
pro -
mu s</w>
eg gs</w>
me l</w>
pier re</w>
stop s</w>
an cy</w>
identi fy</w>
strugg led</w>
f s</w>
she et</w>
pat rol</w>
m ood</w>
phar mac
substan tial</w>
susp ended</w>
a king</w>
le m
recogni ze</w>
0 7</w>
ish ment</w>
appar ent</w>
fun eral</w>
instan tly</w>
mur ray</w>
suppor ters</w>
inter section</w>
hisp anic</w>
s ley</w>
wal ks</w>
life time</w>
e o
gabri el</w>
frequ ent</w>
occa sion</w>
ou se</w>
song writer</w>
instru ment</w>
g em
reven ue</w>
pen alty</w>
pur ple</w>
m all</w>
sebas tian</w>
pro vinc
sho ts</w>
tour ing</w>
dram atic</w>
fi es</w>
scholar ship</w>
pit ch</w>
affili ated</w>
ele y</w>
stan ley</w>
argu ment</w>
en for
infra structure</w>
rema inder</w>
ext ent</w>
dir ty</w>
co tt
go w</w>
in sec
dri vers</w>
opport uni
ell o</w>
ag ement</w>
d as</w>
par ker</w>
plac ing</w>
ko v</w>
un fortunately</w>
sli de</w>
represent ation</w>
pres sing</w>
co ck
swe e
e tr
on er</w>
compil ation</w>
n bc</w>
remo te</w>
disc uss</w>
d ar</w>
rob inson</w>
hon ey</w>
licen sed</w>
an c
chec ked</w>
d or</w>
al fred</w>
om a</w>
tran sit</w>
princi ples</w>
victori an</w>
go sla
concentr ation</w>
d ad
particip ation</w>
enem ies</w>
v la
le ban
lat est</w>
astr onom
d ently</w>
solu tions</w>
touch down</w>
fig ur
transi tion</w>
concer ts</w>
pre ferred</w>
14 th</w>
suspec ted</w>
boo ts</w>
la yer</w>
emo tional</w>
0 5</w>
g ear</w>
juli a</w>
t u</w>
repor ter</w>
engine ers</w>
dist ant</w>
en han
pul se</w>
a ks</w>
min es</w>
bio graphy</w>
el ine</w>
parti ally</w>
f at</w>
n ak
par ent</w>
c bs</w>
ther eafter</w>
dra fted</w>
su san</w>
su itable</w>
scre am</w>
comm ented</w>
no vel
over whel
camp bell</w>
per cent
el ing</w>
mur m
inten tion</w>
sie ge</w>
fun dam
ligh ting</w>
pe ace
acc essi
vo y
t ent</w>
- to-
bir mingham</w>
discus sed</w>
portra yed</w>
ra d</w>
ear ning</w>
intro duc
mar sh
ag encies</w>
ai de</w>
benef its</w>
wi desp
murm ured</w>
ar kansas</w>
gu ine
t ale</w>
ea st
widesp read</w>
guar an
p in</w>
ban e</w>
sc rat
p ec
hor n</w>
car go</w>
en cing</w>
gener ated</w>
phen om
lea f</w>
ran ean</w>
yu gosla
st ev
clin ical</w>
li an</w>
transmis sion</w>
sla ve</w>
chann els</w>
cr ying</w>
beat en</w>
loo p</w>
mol ecu
b lake</w>
anim ated</w>
tri bes</w>
pa int</w>
aff air</w>
vide os</w>
d anny</w>
dur e</w>
be tra
righ t-
guar dian</w>
we ird</w>
sain ts</w>
defen ding</w>
mar ath
enti ally</w>
swal lowed</w>
conn or</w>
deta iled</w>
0 1</w>
co tton</w>
opportuni ties</w>
manag ing</w>
re tt</w>
indic ate</w>
tur n
musc le</w>
sp en
re ser
bang la
p o</w>
civili an</w>
writ es</w>
resear chers</w>
ri char
nom ination</w>
oli ver</w>
li thu
im mun
op h
tra ditionally</w>
nin th</w>
particip ants</w>
absolu tely</w>
is le</w>
oun ced</w>
g lar
yel led</w>
fair ly</w>
diam ond</w>
sh am
ab er
ou l</w>
lin ks</w>
v ow
po d</w>
el ite</w>
commem or
i v
du o</w>
y on</w>
kil ome
arrang ement</w>
end or
organ ised</w>
m am
w es
mor ris</w>
them es</w>
st ag
be half</w>
b at</w>
friend ship</w>
2 50</w>
ven ue</w>
ce ased</w>
per si
sheri ff</w>
e ased</w>
f old</w>
de tail</w>
y am
no ble</w>
mi es</w>
egyp tian</w>
n ell</w>
di st</w>
pro c
fin land</w>
govern ments</w>
al lies</w>
door way</w>
man or</w>
app ing</w>
j es
pu ts</w>
sun g</w>
fur ther
ke l</w>
symph ony</w>
c ats</w>
ob tain</w>
big ger</w>
rele ases</w>
logi sts</w>
di ameter</w>
wa ved</w>
jud ges</w>
rati o</w>
instru mental</w>
def end</w>
g age</w>
car ri
vul ner
cel er
provinc es</w>
ru ling</w>
ru m
sec ured</w>
pa st
co s</w>
ab road</w>
liter ally</w>
perio ds</w>
con fes
ess ential</w>
er ected</w>
189 8</w>
popul ations</w>
rep air</w>
alle ged</w>
abu se</w>
sti r
regi me</w>
suppor ts</w>
atten ding</w>
do ck</w>
don ated</w>
z en
di rt</w>
fo li
al leg
oc k</w>
therap y</w>
y ers</w>
boy friend</w>
sh an
tel eph
pre dec
11 th</w>
c el</w>
dou ble
ac res</w>
pl ying</w>
fi st</w>
10 00</w>
else where</w>
detec tive</w>
ben jam
shoc ked</w>
squ e</w>
pho to</w>
exper t</w>
ly -
w ells</w>
conn ect</w>
sh ri
mor al</w>
hurric ane</w>
t ing
sil k</w>
loc k
bili ties</w>
ti ally</w>
o tic</w>
histor ically</w>
ec h
jo han
vill a</w>
m ere</w>
desper ate</w>
dy n
ac quisi
confi dence</w>
ex ce
achiev ement</w>
devi l</w>
189 9</w>
refu ge
mach ines</w>
du m</w>
answ ers</w>
189 0</w>
man -
le man</w>
???? ??</w>
commer ci
athle tes</w>
s man</w>
port land</w>
i den
full- time</w>
conventi onal</w>
al g
e ur
conte sted</w>
touri sm</w>
er ia</w>
displa yed</w>
deli ber
corrid or</w>
t to</w>
wonder ful</w>
ne il</w>
tai wan</w>
ma x
vent ure</w>
e ase</w>
p aying</w>
g le
l la</w>
ta il
se ven
ag o
premi ere</w>
whisp er</w>
l led</w>
sub marine</w>
ger mans</w>
fiel der</w>
warri or</w>
tri als</w>
vi br
it ate</w>
ac celer
p assi
fic tional</w>
sym pa
co di
exc it
ther es</w>
wild life</w>
r at</w>
sti mul
bio logical</w>
wh en
brook lyn</w>
produc es</w>
th ail
s ag
victi m</w>
med iter
0 6</w>
et ary</w>
l ingu
spec im
evol ution</w>
peop les</w>
dic t</w>
ro cky</w>
benjam in</w>
ha ir
ga ining</w>
swit ch</w>
chan cell
gr un
arri ve</w>
v au
m ati
connec ting</w>
resi ding</w>
bar ry</w>
autom atic</w>
ha i
s ket
fer ry</w>
fri ed
cl as
se as
doub les</w>
character istics</w>
exerc ise</w>
incre di
tex ts</w>
re tri
je an-
insi sted</w>
fo ster</w>
li ga</w>
to s</w>
war ner</w>
be ast</w>
mitch ell</w>
vinc ent</w>
s ville</w>
manu el</w>
g w
publi sher</w>
pleas ant</w>
thail and</w>
emp lo
tour ed</w>
bo bby</w>
with drew</w>
attribu ted</w>
categ ories</w>
co inci
eli gible</w>
swe pt</w>
el ed</w>
mu m
jo sh</w>
al tar</w>
dr unk</w>
pre n
techno logies</w>
pr oud</w>
gent le</w>
win ds</w>
fu ri
r as</w>
reci pi
d g
sculp ture</w>
bel ong</w>
conclu sion</w>
mar cus</w>
ni k</w>
k ay
portra it</w>
arri ving</w>
arc tic</w>
princi ple</w>
read s</w>
inno cent</w>
hamp shire</w>
s p</w>
over seas</w>
ma kers</w>
dismis sed</w>
jer ry</w>
brea the</w>
i o
travel ing</w>
set tle</w>
asse ts</w>
u tah</w>
rich mond</w>
lin ear</w>
d ness</w>
reg ard</w>
ent y</w>
n un
lor ds</w>
jer u
m are</w>
demo lished</w>
inst ant</w>
reser vo
wit ness</w>
fo ssi
vol umes</w>
dra w
2 ,000</w>
patter ns</w>
o ak
in ate</w>
en se
contribu tion</w>
m ason</w>
deci des</w>
teleph one</w>
spac es</w>
wor thy</w>
di s</w>
or m
sa iled</w>
har rison</w>
ent re
in al</w>
r ings</w>
y ang</w>
percent age</w>
0 4</w>
re sort</w>
cor rup
ob jec
magne tic</w>
d ity</w>
dro pping</w>
believ es</w>
afgh ani
compon ent</w>
z hou</w>
glas gow</w>
sla ves</w>
in door</w>
bri lli
cri mes</w>
well- known</w>
mur dered</w>
volunte er</w>
mo tiv
189 7</w>
fil m
assi sted</w>
fil ling</w>
sy mp
a stro
is ation</w>
ran dom</w>
im pressed</w>
189 6</w>
blin ked</w>
repor tedly</w>
pho sp
mon day</w>
se i
poin ting</w>
1. 5</w>
k ow
afghani stan</w>
s mi
pre f
rail ways</w>
arch bishop</w>
deli very</w>
de aling</w>
lu is</w>
regul ations</w>
as sign
op tions</w>
phi l</w>
ul timate</w>
189 5</w>
8 ,
thir teen</w>
j ail</w>
ra f</w>
fif a</w>
oppon ent</w>
re ll</w>
photo graphy</w>
ev ans</w>
ca therine</w>
cla u
spo ts</w>
z am
awar eness</w>
adap tation</w>
u l</w>
car rier</w>
my stery</w>
tr e</w>
r in
cooper ation</w>
lan g
magaz ines</w>
van cou
phoen ix</w>
attemp ting</w>
s light</w>
c attle</w>
requ ested</w>
when ever</w>
li ly</w>
sac red</w>
i p
pun k</w>
jeru salem</w>
t z
st o</w>
pre sti
t ool</w>
gu es</w>
seg ment</w>
low ing</w>
a er
a z</w>
tou ching</w>
s nor
su gg
ul ties</w>
bel gian</w>
e ous</w>
po sing</w>
ende mic</w>
n ai
ap ol
war ned</w>
isol ated</w>
disp u
lo ver</w>
abo ard</w>
organi c</w>
y ar
ro b</w>
six teen</w>
weal thy</w>
m in</w>
wri st</w>
re tail</w>
pas sion</w>
ti ps</w>
psycho logy</w>
ho sti
spr ing
an ce
deploy ed</w>
r ing
pu zz
lo dge</w>
vi o
mediter ranean</w>
deb t</w>
zz y</w>
continu ous</w>
hu gh</w>
o xi
nur se</w>
cre am</w>
wol ves</w>
en ni
d j</w>
c e-
re built</w>
arab ic</w>
j ag
mu d</w>
w ire</w>
bio logy</w>
car ib
sp un</w>
further more</w>
lon gest</w>
ne arest</w>
man hatt
fortun e</w>
pl ates</w>
bi c</w>
swit ched</w>
drum mer</w>
de em
be am</w>
wit ch</w>
au tum
st ard</w>
on i</w>
public ly</w>
p at</w>
ab ra
ex trac
tar ge
d are</w>
sho ved</w>
fin ite</w>
ini st</w>
mon thly</w>
hit ting</w>
earth qu
photograph s</w>
cre atures</w>
bru sh</w>
r ami
p alities</w>
g ger</w>
disa ster</w>
ur i</w>
vancou ver</w>
spo tted</w>
sensi tive</w>
dru m</w>
grand mother</w>
fac il
k le
no ah</w>
decor ated</w>
to ssed</w>
pit ched</w>
plat forms</w>
ar gue</w>
bre w</w>
character ized</w>
vic h</w>
pro pag
ser bian</w>
oppon ents</w>
mar ines</w>
h tt
yor kshire</w>
tic a</w>
f lies</w>
pre ce
har t
a ero
p es
b iting</w>
ne ath</w>
i o</w>
tom s</w>
ment ed</w>
n hl</w>
sm en</w>
democr acy</w>
volunte ers</w>
th al</w>
ev es</w>
gre e
on y
ran gers</w>
slo ven
sett lers</w>
connec tions</w>
comp ound</w>
st le</w>
every where</w>
scri min
list ened</w>
az er
relev ant</w>
lo -
clo sure</w>
pursu e</w>
vo ters</w>
sh ee
buff alo</w>
u x</w>
ti ghtly</w>
sol ute</w>
sc an
188 9</w>
jo se
sugg es
t elec
ne v
comp ens
bi bli
business man</w>
m ask</w>
ne phe
tru ste
hu dson</w>
reas on
gather ing</w>
fin nish</w>
es sive</w>
rec alled</w>
por ch</w>
hou sed</w>
n us</w>
pro spec
atmo sphere</w>
m .
mor tal</w>
chi ll</w>
ru bbed</w>
or -
su s
as m</w>
cy lin
valu able</w>
wh ats</w>
ri di
justi n</w>
ne ed
vene zu
iden tical</w>
l ining</w>
is lam</w>
cu ts</w>
ef a</w>
citiz en</w>
bar on
c rit
scrip ts</w>
susta in
st air
s mu
re t
terr ori
op ti
min ority</w>
wan g</w>
hol ders</w>
189 4</w>
sc he</w>
wi der</w>
dro me</w>
don t</w>
oper ator</w>
fing er
mar t
brea ks</w>
m atic</w>
j as
ma ster
eff icient</w>
sar a</w>
clim b</w>
restric ted</w>
cas u
su rely</w>
ow en</w>
carib bean</w>
brid ges</w>
manhatt an</w>
k g</w>
189 3</w>
hel lo</w>
pp y</w>
loc ally</w>
k ap
inter medi
gi b
lu cy</w>
d ges</w>
u c
ti de</w>
mini sters</w>
li fting</w>
slam med</w>
fl ames</w>
reve als</w>
fil ming</w>
188 5</w>
tr aded</w>
en ne</w>
st ad
wil l
ss y</w>
s ai
stop ping</w>
establi shing</w>
for um</w>
dat ab
ri x</w>
har a</w>
12 .
coun t
cop per</w>
g ari
z om
es a</w>
ani e</w>
nic ol
del hi</w>
thir ty-
batt les</w>
gi ants</w>
bel ly</w>
eag le</w>
kar l</w>
roo t</w>
accessi ble</w>
re located</w>
enterpri se</w>
c un
mun d</w>
tri bun
na than</w>
al lo
l loy
ma dison</w>
exc av
reve al</w>
be aring</w>
ap h
der by</w>
scre aming</w>
ro ad
dar ies</w>
sevent e
per ry</w>
vir us</w>
consist ent</w>
v -
man sion</w>
doc tors</w>
onym ous</w>
fi x
autum n</w>
co l</w>
ten ure</w>
fe e</w>
ari ties</w>
fur nit
n .</w>
bu ses</w>
be e</w>
tic ket</w>
i us</w>
ol ds</w>
co sta</w>
vers ity</w>
termin us</w>
it i</w>
bri stol</w>
ge ome
fir ing</w>
3 d</w>
wi ki</w>
for ti
ki dn
col in</w>
activ ated</w>
ve gas</w>
concer ning</w>
ap s</w>
certi fied</w>
ro d</w>
exc ited</w>
gar age</w>
p p</w>
f icial</w>
god de
grad ed</w>
belong s</w>
v ary</w>
so- called</w>
coll ins</w>
tur ner</w>
number ed</w>
har m</w>
pup ils</w>
ci st</w>
invol ves</w>
bl ame</w>
inv ent
sh ine</w>
er ra</w>
du al</w>
ed a</w>
initi ated</w>
fit z
t ori
out door</w>
189 2</w>
reco very</w>
hawai i</w>
close st</w>
sent enced</w>
tan ks</w>
st ea
loc ks</w>
0 2</w>
sch ar
bec k</w>
a g</w>
bar bara</w>
tr inity</w>
nu cle
dis cover</w>
a x</w>
o g
de voted</w>
spea kers</w>
roman ized</w>
b ha
first- class</w>
ill ness</w>
electr on
r ors</w>
enfor cement</w>
di scre
s inc
reven ge</w>
bill s</w>
subur b</w>
z im
floo d</w>
furnit ure</w>
immigr ants</w>
stol en</w>
spor ting</w>
ev acu
lic a</w>
je al
c lan
ran ging</w>
mechan ism</w>
al ised</w>
h ul
um a</w>
lan ka</w>
co s
mil it
el dest</w>
sli p</w>
tol er
m ons</w>
fin ed</w>
prepar e</w>
kni ghts</w>
simultane ously</w>
inter cep
tra ditions</w>
house holder</w>
ul ate</w>
clin ton</w>
ec tions</w>
il led</w>
arch y</w>
tri ple</w>
certi fic
hun gry</w>
ti ger</w>
mil an</w>
phr ase</w>
respec tive</w>
boun daries</w>
roman ian</w>
ac eae</w>
vie wing</w>
cur ve</w>
tow ers</w>
san k</w>
lat ino</w>
per sian</w>
rep ly</w>
mer chan
ade qu
186 5</w>
coll ective</w>
st own</w>
rebel lion</w>
r s</w>
n is
gro ws</w>
colle gi
bre ad</w>
pl enty</w>
squee zed</w>
pione er</w>
con soli
bi ke</w>
0 3</w>
ser bia</w>
wor ker</w>
ori gins</w>
mad rid</w>
chi le</w>
oc e
ple ased</w>
l om
u efa</w>
hy bri
thru st</w>
sw ung</w>
cli ff</w>
supp le
me tal
bangla desh</w>
pra yer</w>
sk ull</w>
war m
spen cer</w>
b or</w>
recep tion</w>
aff ect</w>
regar dless</w>
entre pre
expla ins</w>
ear n</w>
tra pped</w>
festiv als</w>
dr o</w>
accur ate</w>
lu m
excu se</w>
plan ted</w>
to dd</w>
sha h</w>
me al</w>
ral ph</w>
b u</w>
ad m
munici palities</w>
mil li
liber ty</w>
bu tt
tal es</w>
b ric
ani st</w>
aw k
kis sing</w>
rhyth m</w>
li kes</w>
em y</w>
subsi diary</w>
r ons</w>
jam a
e ditions</w>
li sa</w>
der ek</w>
asse ss
s oo
double -
i ties</w>
bre ast</w>
musli ms</w>
exclu sively</w>
stre tch</w>
s its</w>
satis fied</w>
st en</w>
thum b</w>
heal thy</w>
bei jing</w>
less ly</w>
bru shed</w>
christi an
mani pul
repor ting</w>
gi gg
emi gr
quali fy</w>
en orm
189 1</w>
188 8</w>
inter nationally</w>
con dem
compu ters</w>
mid night</w>
188 0</w>
exp lic
azer bai
e b</w>
186 1</w>
depar ted</w>
br ings</w>
l er
186 4</w>
prison er</w>
tal ks</w>
cro sses</w>
tim ber</w>
syst em
ma ps</w>
four teen</w>
on going</w>
belong ing</w>
be st-
susp en
sle pt</w>
y ester
inc in
hon est</w>
alo g</w>
1 20</w>
f lights</w>
por tions</w>
m cc
ti gers</w>
str on
p i</w>
mat ure</w>
lic ked</w>
di verse</w>
settle ments</w>
implement ed</w>
re sting</w>
stan ts</w>
er up
al pha</w>
ori th
sin k</w>
imp lic
scienti st</w>
fr ame
ter ry</w>
co aching</w>
tr ace</w>
deman ds</w>
na po
con version</w>
t ours</w>
gi o</w>
negoti ations</w>
mor t
shi pping</w>
fis her
hol es</w>
da w
ang els</w>
til ity</w>
mo on
in ti
refl ected</w>
9 ,
top -
alg orith
and o</w>
rad ar</w>
s ample</w>
sh an</w>
ber k
186 2</w>
ali en</w>
explan ation</w>
ro s</w>
reli eved</w>
y a
tom my</w>
du m
com ment</w>
exclu sive</w>
p earl</w>
v as</w>
mu hammad</w>
bit ch</w>
ess ors</w>
chancell or</w>
g es
un successful</w>
at edly</w>
camer on</w>
comple ting</w>
fi res</w>
re duction</w>
sch u
refer ences</w>
del ta</w>
person ally</w>
expo sure</w>
po sts</w>
collap sed</w>
di scrimin
d wi
an thro
harb our</w>
lar ry</w>
pric es</w>
under neath</w>
gas ped</w>
lo west</w>
substitu te</w>
k em
meas ured</w>
at ri
gl y
ti sm</w>
k op
hon est
194 0s</w>
ter -
en sis</w>
sco res</w>
go s</w>
sc or
ori ented</w>
ag ers</w>
fer ences</w>
disp ute</w>
archae ological</w>
kan e</w>
celebr ation</w>
demonstr ated</w>
k it</w>
go sp
incre ases</w>
ci gare
t ance</w>
hero es</w>
sw ing</w>
pl ing</w>
swe at</w>
proper ly</w>
bri s
t rick</w>
oli via</w>
sav ing</w>
tribu te</w>
bu ri
recogn ised</w>
advis ory</w>
la ura</w>
kno ck</w>
susp ici
d ental</w>
co aches</w>
p ers</w>
di versity</w>
juris diction</w>
7 00</w>
doc tr
emo tion</w>
cho ir</w>
t ine</w>
aar on</w>
wor ship</w>
sp her
conven i
playo ffs</w>
ad i</w>
meas u
amend ment</w>
diffic ulty</w>
main stream</w>
prepar ation</w>
manufac tured</w>
ess entially</w>
mani fe
fro zen</w>
a j</w>
j ection</w>
bas es</w>
de vo
travel led</w>
bre eding</w>
gradu ation</w>
per spective</w>
rober ts</w>
pack age</w>
der ly</w>
ch in
sel ect</w>
clu t
n ab
explo sion</w>
k s
north western</w>
mer ger</w>
rac ed</w>
elev ator</w>
re mark
hin du</w>
op ens</w>
form ers</w>
refer ring</w>
dyn amic</w>
sub mitted</w>
ri ley</w>
pre d
sha ke
inc um
g ural</w>
exp and</w>
shor t
foc uses</w>
sy ria</w>
un incorporated</w>
su its</w>
mur phy</w>
locomo tives</w>
u ri
radi cal</w>
touri st</w>
inau gural</w>
am bu
mar gin</w>
cho col
ch op
sc oo
j ol
al aska</w>
tri o</w>
li am</w>
descri bing</w>
depart ments</w>
attac king</w>
is ab
experim ent</w>
l ington</w>
ke ith</w>
bal let</w>
whe els</w>
temper atures</w>
ar -
no -
ter ror</w>
186 3</w>
lloy d</w>
pl as
but ler</w>
c age</w>
hel m</w>
dest ination</w>
shel ter</w>
dre ssing</w>
consum er</w>
ver tical</w>
congre gation</w>
d .
co g
quali fication</w>
def ended</w>
end ar</w>
is ms</w>
inter state</w>
interpre tation</w>
histori ans</w>
for tress</w>
i vy</w>
el abor
qu ad
de pos
bour g</w>
pro secu
fir mly</w>
car ries</w>
cam ps</w>
188 7</w>
5 0,000</w>
cr yp
grand son</w>
d ining</w>
rec ur
tri um
cra ig</w>
c ated</w>
gre g</w>
vis its</w>
comm ons</w>
inter views</w>
speci alized</w>
ten ing</w>
signific ance</w>
ter ies</w>
te amm
far ming</w>
el -
assu me</w>
drag ged</w>
mon it
187 0</w>
dev on</w>
statisti cal</w>
bee tle</w>
re sumed</w>
compani on</w>
o id</w>
at titude</w>
ac ou
zi e</w>
ban ded</w>
re i
hei ghts</w>
ta ke
light ning</w>
yester day</w>
bo xes</w>
cy clo
pe te</w>
cli ents</w>
gen u
fa x</w>
collap se</w>
con vince</w>
e z
impro vement</w>
th en-
so ver
cu ba</w>
par tial</w>
bag s</w>
stu art</w>
or ph
surren der</w>
by z
evol ved</w>
d war
al um
ar sen
con spir
ate ful</w>
in san
cir cles</w>
impres sive</w>
e c</w>
b .
ent ers</w>
origin ated</w>
comprehen sive</w>
ra w
ty ler</w>
depen dent</w>
re treat</w>
te x</w>
fav our</w>
car ved</w>
pul ls</w>
sk ill</w>
indic ates</w>
co ins</w>
tt es</w>
ban ned</w>
f .c.</w>
se al</w>
colum ns</w>
alter nate</w>
bapti st</w>
hi d</w>
exp ecting</w>
for ty</w>
natur ally</w>
di ver
re sig
di schar
hon ors</w>
niger ia</w>
anc est
vir tual</w>
thir d-
bern ard</w>
n ity</w>
sc out</w>
mi st
distinc tion</w>
so ap</w>
restaur ants</w>
tor pe
j ur
k ai
bri de</w>
ab solute</w>
sna ke</w>
es sed</w>
w au
2 1st</w>
in hi
implement ation</w>
mar s</w>
mar ble</w>
i eld</w>
p airs</w>
imag ined</w>
de z</w>
bon us</w>
compar ison</w>
foc using</w>
ann i</w>
ri ders</w>
er nal</w>
mess ages</w>
v et</w>
micro soft</w>
lic s</w>
st even</w>
is cop
promo ting</w>
sover ei
embar ras
exam ination</w>
acquisi tion</w>
ic o</w>
manufac turer</w>
ad mini
vo y</w>
sw ear</w>
lo ves</w>
qu it</w>
v ors</w>
wa it
o ch
ant ine</w>
sli ding</w>
nephe w</w>
as sum
pun ishment</w>
s ay
adel aide</w>
e i</w>
sh ang
narro wed</w>
per cep
bo xing</w>
ash i</w>
athle te</w>
ath ens</w>
i sts</w>
e h
d ome</w>
inspir ation</w>
be ver
st om</w>
fu cking</w>
bre e
sc attered</w>
air lines</w>
jo y
jeff erson</w>
air ing</w>
guine a</w>
cli ent</w>
cur led</w>
p ounds</w>
tr am
3 ,000</w>
so m</w>
bac king</w>
empha sis</w>
cal endar</w>
assess ment</w>
den nis</w>
188 4</w>
no wiki</w>
top ics</w>
gau ge</w>
challeng ed</w>
hol m</w>
inher ited</w>
keep s</w>
isa ac</w>
missi le</w>
al pha
bl on
anim ation</w>
g at
e ed</w>
fa iling</w>
constan tly</w>
kin ds</w>
reservo ir</w>
e ton</w>
int ent</w>
alber ta</w>
re ed</w>
amp ton</w>
activi st</w>
ori ous</w>
survi val</w>
som er
dak ota</w>
c ke
p am
ow ns</w>
pe t
glo be</w>
prote sts</w>
sy rian</w>
ro cket</w>
roman ce</w>
ba h
dun can</w>
ro de</w>
pic king</w>
strugg ling</w>
a in
proce dure</w>
tor n</w>
sex y</w>
shor ter</w>
photo s</w>
contro ls</w>
mon um
eigh teen</w>
pri vi
ic an</w>
- e</w>
bar cel
fa int</w>
low s</w>
ta xes</w>
clo th</w>
he in
ru ler</w>
bris bane</w>
del ic
di ly</w>
exten d</w>
t ough</w>
no where</w>
gen o
curi ous</w>
in ser
jer ked</w>
z ard</w>
tar gets</w>
dem ons</w>
ed ges</w>
188 6</w>
tun e</w>
per u</w>
dent ally</w>
ti les</w>
as er</w>
sp in</w>
character istic</w>
188 1</w>
collegi ate</w>
fel d</w>
cric ke
n ered</w>
go thic</w>
ger ald</w>
n ou
augu st
ach ment</w>
cop y
qu an
vie wer</w>
exten sively</w>
indic ating</w>
distinc tive</w>
t ear</w>
f aded</w>
mom ent
dra ke</w>
mix ture</w>
wo ke</w>
th ful</w>
vol ley
t ful</w>
ren e</w>
b av
ep s</w>
deem ed</w>
pat ent</w>
ag an</w>
ing en</w>
travel s</w>
cancel led</w>
do -
jer emy</w>
um -
mar tial</w>
ak er</w>
nu tri
al ge
equ ally</w>
ir anian</w>
godde ss</w>
tra p</w>
an- american</w>
sh ep
graphi cs</w>
pay ment</w>
ru shing</w>
prin ting</w>
par ade</w>
bin ding</w>
comm ents</w>
direc tions</w>
wid th</w>
p ear
execu tion</w>
diplom atic</w>
particip ating</w>
regul ation</w>
entrepre ne
challeng es</w>
fac e
ess a</w>
cardin al</w>
inten sity</w>
ra z
sul tan</w>
apo logi
atten dance</w>
dy lan</w>
ky le</w>
fav our
helicop ter</w>
bas ement</w>
ide al</w>
volley ball</w>
mem bran
f u</w>
flow ing</w>
serge ant</w>
er i</w>
den ver</w>
experim ents</w>
run ner
ali gn</w>
hop es</w>
10 -
k r
o sity</w>
can o
influ ences</w>
campaig ns</w>
correspon ding</w>
v s</w>
le st</w>
corrup tion</w>
10 0,000</w>
shar p
per mitted</w>
pra desh</w>
the o
le op
j ab
si c</w>
enni al</w>
gri m
1 1.
pre y</w>
g el
s by</w>
nat i</w>
pre domin
tu de</w>
fer n
k re
sc op
na z
smil es</w>
en su
pre serve</w>
v ag
ham mer</w>
ev an</w>
ru b
nu t</w>
2. 5</w>
guil t</w>
der -
warm th</w>
immigr ation</w>
ligh tly</w>
m im
amoun ts</w>
eng agement</w>
ir rit
bur ns</w>
see ds</w>
slov ak
bo s
far mer</w>
oxy gen</w>
democr at</w>
k ho
ver n</w>
a is</w>
le ap
ob jective</w>
nor folk</w>
he els</w>
gh ty</w>
flo ors</w>
for k</w>
supp lied</w>
prac tically</w>
dis ambigu
func tional</w>
me i
e in
physi cian</w>
resig nation</w>
i op
cap ita</w>
wh er
symp toms</w>
far m
tren t</w>
desig nation</w>
frame work</w>
ch airs</w>
pri s
t enth</w>
ab str
en o
convic ted</w>
br ace</w>
territ orial</w>
c incin
g m</w>
secre ts</w>
par adi
id ance</w>
a wake</w>
ti ghtened</w>
u h</w>
re viewed</w>
lo g</w>
d ell</w>
he brew</w>
le eds</w>
deli ver</w>
rele asing</w>
dol lar</w>
le agues</w>
en comp
po is
clou ds</w>
sa o</w>
wi dow</w>
fe eding</w>
sex u
r ally</w>
di er</w>
ep iscop
j r.</w>
wash ed</w>
physi cally</w>
illustr ated</w>
contribu ting</w>
philipp ine</w>
disambigu ation</w>
me ad
ran ch</w>
car riage</w>
playo ff</w>
tempor arily</w>
en counter</w>
dra g</w>
excit ement</w>
har old</w>
sm ir
intellec tual</w>
se ized</w>
seri al</w>
the ories</w>
ww w.
rela xed</w>
prepar ing</w>
li van</w>
present -day</w>
val ent
judi cial</w>
instruc tion</w>
plan es</w>
wi ped</w>
m ali
ab les</w>
dise ases</w>
es co</w>
tru m</w>
bri gh
war e
si ded</w>
exhi bited</w>
nick name</w>
democr ats</w>
gui ded</w>
top ic</w>
sign als</w>
recomm end
buddhi st</w>
fl ashed</w>
read ers</w>
nev ada</w>
er ror</w>
concentr ated</w>
ren a
shu d
appro aches</w>
ro pe</w>
liber ation</w>
wel fare</w>
hes itated</w>
ma har
cop e</w>
prin ts</w>
bul let</w>
d op
th under
advent ures</w>
veter an</w>
out break</w>
barcel ona</w>
sand y</w>
pi pe</w>
scri bed</w>
coll ect</w>
mun ich</w>
vio let</w>
enorm ous</w>
kar a</w>
serv ant</w>
en rolled</w>
ro e</w>
ack er</w>
main land</w>
c ec
comman ding</w>
greg ory</w>
christian ity</w>
cincin nati</w>
th am</w>
ridi cul
ro gers</w>
clim bing</w>
h ali
b re</w>
attrac tive</w>
f ay
mari time</w>
sh y</w>
ense mble</w>
bor e</w>
pp ers</w>
cul t</w>
disp lac
13 .
gr o</w>
eye brows</w>
simp li
d ley</w>
186 0</w>
g ical</w>
th ai</w>
ac les</w>
diffic ulties</w>
1 ,0
188 2</w>
ing e</w>
writ ings</w>
clen ched</w>
arti ficial</w>
ba stard</w>
gre n
incum bent</w>
it arian</w>
occa sional</w>
ar c</w>
ste am
ai res</w>
asp ect</w>
hand ling</w>
s field</w>
long- term</w>
ca ster</w>
brilli ant</w>
le m</w>
bloo d
n ol
un d</w>
journ alism</w>
jes se</w>
re now
haw ks</w>
autom atically</w>
complic ated</w>
vulner able</w>
s no
d oo
renow ned</w>
consci ousness</w>
narr ative</w>
ni k
y u</w>
ff led</w>
o graphy</w>
si erra</w>
har sh</w>
i van</w>
ch es
sou theastern</w>
j in</w>
ma z
abo li
thor ough
b am
tu ary</w>
circu lar</w>
sig nature</w>
b old</w>
ot ta
instruc tions</w>
confeder ate</w>
christi ans</w>
refl ect</w>
boar ding</w>
cro ps</w>
sul livan</w>
rebel s</w>
prote ins</w>
e h</w>
eag les</w>
bu l</w>
and ers</w>
mac ed
situ ations</w>
succ ession</w>
hop e
jac ob
re verse</w>
y i</w>
ph ones</w>
shu t
ed ith</w>
grow led</w>
188 3</w>
187 6</w>
jo ke</w>
187 8</w>
min ster</w>
rele gated</w>
colom bia</w>
radi ation</w>
di vine</w>
voc alist</w>
myster ious</w>
flo rence</w>
the ology</w>
repe atedly</w>
and re</w>
p ile</w>
ro dri
an nie</w>
en vel
am ster
h ms</w>
read er</w>
has n</w>
reduc ing</w>
a es
locomo tive</w>
z h
ne br
die sel</w>
ur us</w>
g ant</w>
bro ther
every body</w>
docum ented</w>
al titude</w>
ac on</w>
ne pal</w>
in ver
re b
en zy
c dp</w>
ch ev
ib n</w>
ch an</w>
divor ce</w>
f ool</w>
gener ations</w>
ja b</w>
hit ler</w>
ad dressed</w>
o u</w>
y o</w>
tur ers</w>
ed wards</w>
ra ys</w>
eng age</w>
her bert</w>
illu min
resc u
struc tural</w>
metr e</w>
le x
armen ian</w>
fl ash
breath ed</w>
oni sts</w>
hel p
appro aching</w>
cler k</w>
fundam ental</w>
dec om
dis solved</w>
sc u
mon itor</w>
tournam ents</w>
par k
tr unk</w>
cor n</w>
transm it
re f</w>
hu gh
te t</w>
chick en</w>
observ ation</w>
gram mar</w>
you tube</w>
ow ed</w>
ha un
co t</w>
lo go</w>
tw ins</w>
k ab
se ated</w>
ra ble</w>
autom ob
dro ps</w>
fab ric</w>
wi dened</w>
li l
ob ama</w>
declar ation</w>
was h</w>
j ak
pi lots</w>
colon ies</w>
fa ke</w>
r ounded</w>
v ar</w>
comm enced</w>
ang ered</w>
ac tively</w>
exten ding</w>
arri ves</w>
remo val</w>
s wan
gal ax
ac cum
tis sue</w>
j ared</w>
inha bited</w>
leg ally</w>
re source</w>
gi ous</w>
sk ele
vi er</w>
employ ee</w>
ax is</w>
ch t</w>
si ck
pen etr
ban king</w>
char le
20 ,000</w>
depic ted</w>
hu g</w>
mor oc
archit ects</w>
less ons</w>
quarter back</w>
p oured</w>
f ail</w>
du s</w>
ran ges</w>
l p</w>
lan der</w>
elev ated</w>
el ic</w>
cle aring</w>
ken ny</w>
midd le
re sur
as a</w>
inter -
p ause</w>
ori um</w>
ali zing</w>
f ury</w>
su ite</w>
a ster
cu stom</w>
le tt</w>
ssi onal</w>
fi er
nam ely</w>
fran co
187 1</w>
fe wer</w>
under graduate</w>
re serves</w>
lo e</w>
pol l</w>
lo vely</w>
gg y</w>
y al</w>
tem ples</w>
defen der</w>
shee ts</w>
ri val
ab un
vari ant</w>
inc ar
jo an</w>
suspec t</w>
sac rif
su cked</w>
kis ses</w>
tom b</w>
ro se
ha ppi
pe p
ken ya</w>
stri king</w>
sequ el</w>
bou lev
mon go
recei ves</w>
bloc ked</w>
eng li
cur se</w>
ga z
connec ts</w>
us age</w>
slovak ia</w>
amster dam</w>
w u</w>
ten tion</w>
dre sses</w>
g aria</w>
ag onist</w>
veter ans</w>
sa iling</w>
du g</w>
bo ther</w>
b b</w>
molecu lar</w>
187 5</w>
del ayed</w>
ir y</w>
he ir</w>
man ia</w>
hospit als</w>
contrac ts</w>
-in- law</w>
re vel
en co
cr ashed</w>
authori zed</w>
ignor e</w>
h ans</w>
re tro
eff iciency</w>
i on</w>
sil ently</w>
th y
sc al
ph d</w>
ot to</w>
believ ing</w>
st ur
mi st</w>
stran ger</w>
gi a</w>
sha de</w>
m t</w>
or n</w>
qu est</w>
nebr aska</w>
intermedi ate</w>
sha ft</w>
manu script</w>
attrac tion</w>
rabb i</w>
ex emp
s ar</w>
posse ssed</w>
ex ile</w>
arm or</w>
emerg ing</w>
gr ass
chocol ate</w>
di ck
gon z
ro bo
fear ed</w>
g low</w>
di l
super vis
ques tioned</w>
st ored</w>
phenom en
lin er</w>
less er</w>
m w</w>
autonom ous</w>
mo thers</w>
hal t</w>
ent e</w>
descend ants</w>
ang lo-
fa thers</w>
pre mis
ven ice</w>
po d
assi sts</w>
eth iop
mili tia</w>
ro wed</w>
ici an</w>
collabor ated</w>
dor f</w>
y ale</w>
arrang ements</w>
mor s</w>
inv itation</w>
pp e</w>
fem in
congre ssional</w>
rena issance</w>
hand some</w>
recipi ent</w>
counc ill
hor se
advoc ate</w>
stra ined</w>
syn dic
ford shire</w>
encoun tered</w>
o tt</w>
mu tual</w>
bic y
en to</w>
co ached</w>
pol lu
drag ons</w>
bi es</w>
investi gate</w>
au x</w>
peter sburg</w>
ca de
dom ini
wo ol
run ner</w>
jen ni
legi on</w>
kilome ters</w>
eri al</w>
induc ted</w>
de er</w>
ai ds</w>
ju lie</w>
croati a</w>
comp rises</w>
camer as</w>
reve aling</w>
ac ces
cont ents</w>
custom s</w>
p. m.</w>
pla ins</w>
f bi</w>
war saw</w>
hard ware</w>
n ash
par al
they re</w>
ga stro
le ys</w>
gil bert</w>
mont gom
per pe
fle xi
186 7</w>
ad ol
fre ight</w>
dis banded</w>
al arm</w>
soci eties</w>
sec ution</w>
ten s</w>
lef t-
sa ke</w>
r al</w>
hol land</w>
cor ners</w>
sp ine</w>
bom bing</w>
argent ine</w>
chor us</w>
se ment</w>
far ms</w>
flo ating</w>
predec essor</w>
neighbor ing</w>
car ed</w>
ext inct</w>
pris oned</w>
el o
ven s</w>
gen es</w>
impro vements</w>
ri der</w>
pe dro</w>
foot age</w>
rat ings</w>
o be
psycho logical</w>
croati an</w>
pac ked</w>
in um</w>
im prisoned</w>
he m</w>
some body</w>
187 2</w>
beng al</w>
h ook</w>
ab u</w>
z oo
commit ment</w>
na ils</w>
admini stered</w>
t amp
car ni
gar rison</w>
???? ???</w>
lei gh</w>
datab ase</w>
sh re
osc ar</w>
can ton</w>
cul tures</w>
prote stant</w>
ach t</w>
happ iness</w>
threat ening</w>
half way</w>
cle ar
up stairs</w>
con figur
186 8</w>
o d</w>
bal an
man ual</w>
- like</w>
om ed</w>
pri ests</w>
inter action</w>
ca sting</w>
cle an
j .
earthqu ake</w>
la d</w>
gr ateful</w>
e di
mat rix</w>
exper ts</w>
recru ited</w>
anthro po
real m</w>
and ro
per ceived</w>
sh allow</w>
speci alist</w>
mont ana</w>
horiz on
tan g</w>
s day</w>
un comfortable</w>
sid ers</w>
ori an</w>
profession als</w>
consi st</w>
custom er</w>
in put</w>
vel t</w>
e ter</w>
187 4</w>
there by</w>
comp li
cassi e</w>
exhi bit</w>
ble w</w>
inau gur
inter n
all an</w>
cylin der</w>
blan ket</w>
k ath
ro of
pur se</w>
sophi e</w>
ur ge</w>
em is
cu sto
leg acy</w>
assemb led</w>
w ounds</w>
present ation</w>
ky lie</w>
di alogue</w>
celebr ate</w>
bar n</w>
187 9</w>
en os</w>
ru th</w>
ga ther</w>
far ther</w>
ali ze</w>
worl ds</w>
air line</w>
mil len
coo king</w>
ff y</w>
jenni fer</w>
14 .
organis ations</w>
in ers</w>
sin s</w>
cou p</w>
al ley</w>
colle agues</w>
ir on
amp hi
re d-
vari able</w>
m s.</w>
human ity</w>
ha gen</w>
o logist</w>
non- families</w>
kill s</w>
re ha
is y</w>
tr ad
trans formed</w>
gro aned</w>
she ep</w>
politici ans</w>
exhibi tions</w>
chuck led</w>
mou se</w>
al is</w>
el ia</w>
hoo ds</w>
ca ke</w>
gover ning</w>
auth or
it z</w>
mo dul
im pression</w>
sil ver
pe as
ali e</w>
ay an</w>
comp iled</w>
bul garian</w>
fu sion</w>
sp ite</w>
inv ented</w>
boulev ard</w>
flu id</w>
ff e</w>
caf e</w>
program mes</w>
tru mp</w>
liter acy</w>
com mu
hon ours</w>
s enti
rele ss</w>
l u</w>
main taining</w>
dad dy</w>
ad rian</w>
del aware</w>
lo ving</w>
ak h
chu ck</w>
ap pren
th en
inc .</w>
a w</w>
den o
h annah</w>
mi e</w>
pit cher</w>
ro wing</w>
war fare</w>
hum or</w>
mar qu
m amm
187 3</w>
el ds</w>
mu s
y ton</w>
up dated</w>
follow ers</w>
sp are</w>
ra ft</w>
ka i</w>
mo ham
ig n
hand led</w>
om et
ju mping</w>
wall ace</w>
cr ack</w>
wed nes
carol ine</w>
g ate
land mark</w>
tal ity</w>
civi c</w>
affili ate</w>
hamp ton</w>
produc tive</w>
sing ers</w>
ad ri
gosp el</w>
u z
f** k</w>
to i
casu alties</w>
pre servation</w>
can yon</w>
hear ts</w>
s nar
eat en</w>
bul garia</w>
survi vors</w>
pla za</w>
lo ading</w>
prevent ed</w>
p ond</w>
bl ur
auth ored</w>
ar bit
archi ves</w>
leban on</w>
b end</w>
ach i</w>
bec ca</w>
spe ed
pre li
gener ate</w>
s ap
str ation</w>
vari ation</w>
al tered</w>
186 6</w>
sh ane</w>
curren cy</w>
sau di</w>
s r
philosop hi
as y
har vey</w>
consu mption</w>
c ester</w>
ar ray</w>
oun d-
leon ard</w>
hu h</w>
ar mies</w>
sp y</w>
d h
htt p</w>
lo v
de pot</w>
pun ch</w>
re forms</w>
pres by
vla di
tri but
sett ling</w>
comp ati
install ation</w>
co tt</w>
nan cy</w>
o sa
intro duce</w>
cu lar</w>
rev ised</w>
berk eley</w>
f um
f ence</w>
cl am
arn old</w>
op hy
sens ation</w>
serv ants</w>
sanc tuary</w>
tor ture</w>
recei ver</w>
sam ples</w>
foun ders</w>
equ ation</w>
enzy me</w>
azerbai jan</w>
acknowle dged</w>
pro ph
gu t</w>
al ger
fac ade</w>
por ter</w>
ang li
tribut ary</w>
ai ms</w>
protec ting</w>
expl ore</w>
m l</w>
gi l</w>
bish ops</w>
photo grapher</w>
fur n
thre ats</w>
jessi ca</w>
t asks</w>
kno ck
exam ined</w>
roo se
otta wa</w>
200 0s</w>
del ay</w>
escor t</w>
ver i
vari ations</w>
bre ed</w>
some time</w>
contin ent</w>
s ounding</w>
inter face</w>
pir ates</w>
bass y</w>
mo ther
ru ins</w>
cour age</w>
integr ation</w>
perman ently</w>
ac o</w>
certific ate</w>
accomp lished</w>
o y</w>
re bel</w>
mem o
loy al</w>
pra ise</w>
no ting</w>
af ford</w>
184 8</w>
sear ched</w>
g ad
pre ston</w>
hugh es</w>
k at</w>
em bassy</w>
blan k</w>
suspen sion</w>
am anda</w>
manufac turers</w>
187 7</w>
th al
th igh
proce eded</w>
gro ss</w>
sor ts</w>
concep ts</w>
mag gie</w>
announ cement</w>
abra ham</w>
gr ants</w>
whit e
mid fielder</w>
k ati
bit ter</w>
her d</w>
est ates</w>
accommo date</w>
nor theastern</w>
dimen sional</w>
ne ys</w>
innov ation</w>
new castle</w>
sing ly</w>
ra p
consequ ently</w>
adequ ate</w>
spec trum</w>
12 -
to po
presti gious</w>
ten se</w>
sh eff
ro d
sh en
sever ely</w>
mc car
cor on
hon ored</w>
as sured</w>
kar en</w>
marath on</w>
pow der</w>
o ber
m tv</w>
cha os</w>
coun ted</w>
stati oned</w>
ro land</w>
great -
cricke ter</w>
di et</w>
que ens</w>
phi c</w>
drin ks</w>
spir its</w>
mathemati cal</w>
t ate</w>
roose velt</w>
reco ver</w>
electron ics</w>
stat ements</w>
lun gs</w>
work shop</w>
susta ined</w>
ep tion</w>
spec tac
lun g</w>
consequ ences</w>
bl ond</w>
goo gle</w>
mon k</w>
mag ical</w>
ell en</w>
appreci ate</w>
semin ary</w>
journ alists</w>
cent ered</w>
man d
c u</w>
m l
ol i</w>
mo sque</w>
m c</w>
man ages</w>
virtu ally</w>
mil lions</w>
fellow ship</w>
deri v
mp h</w>
re lay</w>
z z</w>
z an
po se
promp ted</w>
ar mor
presid ency</w>
to bac
refuge es</w>
cor d</w>
cat aly
ab rup
ci o</w>
recre ation</w>
mist ak
ste pping</w>
cham bers</w>
en er
me tric</w>
bre vi
a ur
cor p
pi stol</w>
mo z
chi efs</w>
bat ting</w>
b oul
o va</w>
re yn
abo lished</w>
v ale</w>
is -
dan cer</w>
c all
li me
com positions</w>
encour age</w>
cog ni
' you</w>
li ke
well ington</w>
ha us
acou stic</w>
i ans</w>
voic ed</w>
stan i</w>
be th
t v
construc t</w>
kri sh
preli min
gri d</w>
separ ation</w>
ati on
t- shirt</w>
broadca sts</w>
ar es</w>
bran ded</w>
moder ate</w>
gar cia</w>
ra pe</w>
si um</w>
gu idance</w>
c iting</w>
pro xim
two- year</w>
dre am
nation alist</w>
anch or</w>
sh ei
enjo ying</w>
mar vel</w>
gg s</w>
c n
pic k
ch au
develop ments</w>
gam e
t ch
mach in
ste st</w>
bl ings</w>
d ella</w>
cur ved</w>
der ness</w>
south western</w>
** *</w>
rese mb
shang hai</w>
seri e</w>
ray mond</w>
assign ment</w>
ar di
p y</w>
li e
186 9</w>
co p</w>
inter change</w>
exhau sted</w>
om on</w>
s way</w>
r in</w>
advis or</w>
frustr ation</w>
2 4
exter ior</w>
re construction</w>
quar tered</w>
sacrif ice</w>
- and-
ben nett</w>
dam ned</w>
exten ds</w>
or ly</w>
sw ick</w>
hur ry</w>
mau rice</w>
g and
edit orial</w>
no te
absor bed</w>
tri bal</w>
suff er</w>
par ame
jac ques</w>
for ty-
back ward</w>
you ve</w>
n els</w>
so le
displa ys</w>
ur u
bra d</w>
an t-
str o</w>
tri ps</w>
touri sts</w>
k ul
sor ship</w>
rol ls</w>
promis ing</w>
de on</w>
ment ally</w>
cent res</w>
k au
son y</w>
w -
theat rical</w>
play -
v s.</w>
or da
st atic</w>
nash ville</w>
c p
de ut
hur ried</w>
tic ul
boo m</w>
spe are</w>
fi er</w>
bar rier</w>
sla very</w>
par ked</w>
co x</w>
x y</w>
ste al</w>
bor o</w>
disp at
sti ff
18 50</w>
appe als</w>
interven tion</w>
si zes</w>
or bit</w>
ri pped</w>
we t
stre ak</w>
stan ford</w>
fl ame</w>
cel tic</w>
montgom ery</w>
en able</w>
cur ricul
wat son</w>
bar rel</w>
m d</w>
jo in
fa stest</w>
mission ary</w>
abrup tly</w>
to es</w>
dor o
regre t</w>
neutr al</w>
pron ounced</w>
on ies</w>
z -
speci fied</w>
fl at
e pic</w>
ar do</w>
mari o</w>
witne sses</w>
sheff ield</w>
am ber</w>
reti ring</w>
top ped</w>
prec ed
nur sing</w>
f in</w>
ignor ing</w>
hand ful</w>
in fer
el bow</w>
necess arily</w>
ent ing</w>
bar t</w>
bar ri
conqu est</w>
predomin antly</w>
travel ling</w>
ge dly</w>
spea ks</w>
aggre gate</w>
associ ations</w>
cru z</w>
k ad
practic ed</w>
lay ers</w>
nation wide</w>
fr ac
jen ny</w>
rel ating</w>
mer cy</w>
pain ful</w>
renew ed</w>
horri ble</w>
relati ves</w>
discipl ine</w>
contribu te</w>
south- east</w>
gl ory</w>
eag er</w>
favour ite</w>
ar row</w>
b hu
ow l</w>
aff ir
desi red</w>
shake speare</w>
vi i</w>
kir k</w>
r .
str ings</w>
gra in</w>
du res</w>
shor ts</w>
he ated</w>
stre ams</w>
up coming</w>
tre vor</w>
l ling</w>
tu cked</w>
ine e</w>
hi er
me te
over head</w>
sugge sting</w>
we ster
d ac
conduc tor</w>
reali zing</w>
th under</w>
citiz en
uni ons</w>
ato es</w>
do z
squ ir
h int</w>
il es</w>
ter o
roo kie</w>
stra in</w>
elli s</w>
zz a</w>
boo t</w>
in fr
qu inn</w>
excell ence</w>
ver mont</w>
buri al</w>
gin a</w>
melo dy</w>
bor g</w>
un e</w>
ther mal</w>
w ishes</w>
cor k</w>
pro vo
ann on</w>
tor n
wer e
li z</w>
pro li
coun ts</w>
ev angel
broo ks</w>
eg g</w>
san ti
cat ching</w>
du bbed</w>
d ame</w>
curricul um</w>
trans formation</w>
reason able</w>
thigh s</w>
olym pi
15 .
disp er
ro ster</w>
ar ched</w>
va e</w>
cha ins</w>
re pri
dis order</w>
sun light</w>
s nu
c ac
over -
mar king</w>
bol t</w>
m g</w>
fin n</w>
fli pped</w>
byz antine</w>
ri bb
ish -
invol ve</w>
non- profit</w>
co in</w>
com po
cul min
the od
t ina</w>
vi e</w>
coun try
pat ch</w>
phil lips</w>
metho dist</w>
argu ing</w>
fre est
mer it</w>
th ough
ma id</w>
rec all</w>
syn drome</w>
priv ately</w>
refer en
boo th</w>
stri kes</w>
i da
mol lu
che ese</w>
art work</w>
gra vity</w>
judg ment</w>
eu gene</w>
sharp ly</w>
r ington</w>
quan tum</w>
d ine</w>
ob sc
re formed</w>
lou ise</w>
heal ing</w>
gest ure</w>
re served</w>
hea vy
den om
sc ram
ven ues</w>
glar ed</w>
t son</w>
trac ed</w>
vi si
journ als</w>
protec tive</w>
fier ce</w>
pl un
ch amp
de als</w>
legen dary</w>
- time</w>
rit ual</w>
cy c
ban g</w>
vict ories</w>
sh ers</w>
pan ama</w>
bloc k
satis faction</w>
g ill</w>
ham let</w>
plat inum</w>
aw ak
t .
v ital</w>
do d
bar o
ira qi</w>
episcop al</w>
loc ate</w>
lan g</w>
circul ation</w>
motor cycle</w>
depen ds</w>
bun ch</w>
amp ed</w>
ju ven
col ours</w>
con sec
dis covers</w>
disc our
tw enti
venezu ela</w>
st ap
navi gation</w>
rec k
identi fication</w>
sw ir
au ck
im posed</w>
whi r
argu es</w>
am ar
ent -
l ler</w>
sp in
a ha</w>
eng ra
t ore</w>
indepen dently</w>
den se</w>
expl oration</w>
j av
est -
s ally</w>
d enti
0 th</w>
po l</w>
kin son</w>
hol low</w>
er able</w>
inf ection</w>
desc ended</w>
ad or
expan ding</w>
napo leon</w>
uni tion</w>
an te</w>
enab led</w>
n u</w>
rem n
el ena</w>
ab by</w>
bom bar
d s
hot els</w>
fi ghts</w>
more over</w>
ter ly</w>
sp reading</w>
xi e</w>
conduc ting</w>
dis continued</w>
proce dures</w>
prelimin ary</w>
behavi our</w>
it -
coun sel
pr ague</w>
provi sions</w>
floo ding</w>
for bi
qu in
a ine</w>
pro stitu
divor ced</w>
proto col</w>
oxi de</w>
all- star</w>
s ation</w>
un expected</w>
qu et</w>
f t
sustain able</w>
s wa
au x
bow ling</w>
cott age</w>
hun ger</w>
cher ry</w>
in visible</w>
te stam
reli able</w>
remark able</w>
ber land</w>
guil d</w>
eye brow</w>
con ferences</w>
a o
cr ou
ss r</w>
libr aries</w>
185 9</w>
pe ts</w>
viet nam
ev en
rela x</w>
as i</w>
gi es</w>
3. 5</w>
dis appointed</w>
re tain</w>
sho e</w>
stat e-
e is
ha v
sur ing</w>
re t</w>
beli efs</w>
di ll
la sting</w>
certain ty</w>
auck land</w>
under went</w>
j u</w>
am an</w>
hol ly</w>
differ enti
chec king</w>
r ams</w>
ni kol
so fia</w>
doc torate</w>
col t</w>
cre ator</w>
y m</w>
proto type</w>
civili ans</w>
sas kat
zo o</w>
quo ted</w>
an nex
li on
har per</w>
foo ds</w>
bu ying</w>
ber ger</w>
ph on
mer cur
tar a</w>
agre ements</w>
requ iring</w>
yugosla via</w>
cho re
cre ates</w>
seem ingly</w>
c tu
ph .d.</w>
legi timate</w>
em en</w>
ed mon
ri vals</w>
step h
ge e</w>
hybri d</w>
pur suit</w>
tobac co</w>
for got</w>
audi ences</w>
rest ore</w>
k nu
preci ous</w>
can non</w>
do t</w>
adv ised</w>
an ten
clo set</w>
main tains</w>
tru cks</w>
si blings</w>
pi e</w>
t uni
v ina</w>
vari ed</w>
mar sh</w>
c t</w>
m ick</w>
event ual</w>
sm elled</w>
seg ments</w>
cardin als</w>
poten tially</w>
tiv eness</w>
j in
col m</w>
touch downs</w>
orda ined</w>
targe ted</w>
coll ecting</w>
min ds</w>
enti ty</w>
hol dings</w>
head quartered</w>
ug ly</w>
inspec tor</w>
p ou
ro sen
rout ine</w>
bo dy
comm entary</w>
s nat
es sex</w>
comp act</w>
resi st</w>
blon de</w>
ec ho</w>
face book</w>
regi stration</w>
pal ms</w>
t ories</w>
e ta</w>
be ds</w>
log ically</w>
alle gedly</w>
m our
d ami
vi vi
hun ters</w>
insec ts</w>
c ements</w>
e tta</w>
ber y</w>
sy mb
mag i
sp inning</w>
mi gu
f o</w>
rub ber</w>
consul tant</w>
discrimin ation</w>
it em</w>
var ies</w>
lar vae</w>
185 7</w>
st ent</w>
can e</w>
yu an</w>
tu es
chap ters</w>
offen se</w>
lec tures</w>
mat ched</w>
en listed</w>
our ing</w>
gor ge
gene sis</w>
jo ins</w>
li u</w>
s age</w>
re moving</w>
palest ine</w>
w ning</w>
pro pri
mon y</w>
fron tier</w>
sevente en</w>
voy age</w>
lin da</w>
deal t</w>
h d</w>
ter rain</w>
determin ation</w>
nati ves</w>
ti p
dri ves</w>
commit tees</w>
radi o
ici a</w>
ker ala</w>
k ash
th ick
ol o</w>
fis her</w>
shi fting</w>
nom inations</w>
bran don</w>
ch loe</w>
pis sed</w>
ab brevi
im pe
m u</w>
fel ix</w>
tru sted</w>
popul ated</w>
marsh al</w>
per mit</w>
ang a</w>
cle aning</w>
awk ward</w>
associ ates</w>
op le</w>
butter fly</w>
tre ating</w>
ment ation</w>
migr ation</w>
py rami
acci dentally</w>
treas ure</w>
def ine</w>
confi dent</w>
sh in
ca b</w>
oper ators</w>
requi rement</w>
si p</w>
li fel
sen ses</w>
hal ed</w>
ac king</w>
pan els</w>
invest ors</w>
wag on</w>
li ghter</w>
amm unition</w>
am al
do l</w>
sta ined</w>
interpre ted</w>
sexu ality</w>
no tion</w>
mar co</w>
wednes day</w>
mar gin
br ed</w>
cru ise</w>
l ton</w>
sla m</w>
stric t</w>
monit oring</w>
refu ge</w>
a. m.</w>
ti ble</w>
am use
t ear
refl ection</w>
bo li
doctr ine</w>
s ali
aggre ssive</w>
ve ins</w>
you ll</w>
le a</w>
tra iler</w>
fr at
chan ces</w>
chi p</w>
st ability</w>
ob a</w>
a ster</w>
le u
explo ded</w>
re al-
mer i
ner ve</w>
es h</w>
di ving</w>
la wn</w>
mar c</w>
att a</w>
palest inian</w>
co des</w>
mass acre</w>
f au
new ton</w>
dead ly</w>
it ations</w>
sk in
who ever</w>
inv en
16 .
neighbour ing</w>
avoi ded</w>
g ations</w>
brac ed</w>
do c</w>
w ow</w>
li sting</w>
sub urban</w>
out -
col lar</w>
star tled</w>
gl en</w>
citizen ship</w>
succ eed</w>
z on</w>
ur ged</w>
pp le</w>
ani me</w>
any a</w>
symb ols</w>
j am</w>
min er
ten ded</w>
am o</w>
vietnam ese</w>
v u
cra p</w>
me th
l ur
wal d</w>
cer e
restric tions</w>
o .</w>
gram my</w>
sti ll
pun jab</w>
fer r
ste fan</w>
peace ful</w>
arsen al</w>
dow ed</w>
smo king</w>
ca in</w>
ang s</w>
subur bs</w>
si ci
br yan</w>
cla ude</w>
clar ke</w>
rac ks</w>
over come</w>
bal d</w>
lu lar</w>
dan te</w>
deman ding</w>
or o
ch ard</w>
repe at</w>
horiz on</w>
the ological</w>
for give</w>
pre fer</w>
chel sea</w>
arab ia</w>
dr y
t ent
north- west</w>
k ick
fe ver</w>
estim ate</w>
se a
celebr ity</w>
h l
un anim
inst inc
tra de
ri p
mon sters</w>
aw ful</w>
pier ce</w>
non eth
slo pe</w>
j al
cer am
c r</w>
impro ving</w>
wi ves</w>
partic les</w>
cour ty
pursu ed</w>
cl y
man ila</w>
super inten
nation als</w>
noneth eless</w>
indi es</w>
mum bai</w>
mo du
ten den
lec turer</w>
ac a</w>
re solved</w>
al ert</w>
em be
honest ly</w>
f r</w>
di ana</w>
lo bby</w>
insan e</w>
ste ep</w>
disc lo
per cu
var ying</w>
ab a</w>
heavy weight</w>
tur b
agre es</w>
slow ed</w>
to y</w>
witne ssed</w>
gav in</w>
m son</w>
ic on</w>
after ward</w>
gli mp
in scription</w>
pref ecture</w>
mercur y</w>
f all
bree ze</w>
ham burg</w>
mil wau
alum ni</w>
ch it
be ard</w>
sh u</w>
mr s</w>
lo pe
north- east</w>
foot steps</w>
desper ately</w>
loy alty</w>
tri gger</w>
cr acked</w>
sh are
geo graphic</w>
thur sday</w>
elabor ate</w>
con voy</w>
cas ino</w>
transpor ted</w>
indone sian</w>
v p</w>
en da</w>
ici ently</w>
bul k</w>
play station</w>
home town</w>
s ail</w>
mon ica</w>
skir ts</w>
l oun
on au
gre y
p ad</w>
gri pped</w>
t man</w>
l ecture</w>
in land</w>
south- west</w>
vec tor</w>
sle ep
stum bled</w>
testam ent</w>
pal mer</w>
h ra</w>
ar o</w>
jama ica</w>
sel ess</w>
cat al
moder ni
fro ze</w>
bran ds</w>
p ound</w>
wit z</w>
dial ect</w>
o blast</w>
re- elected</w>
skir t</w>
bur ton</w>
sli e</w>
wol f
con di
swi ft</w>
gra bbing</w>
h .
sc ales</w>
out come</w>
clin ic</w>
cl ing</w>
crit eria</w>
scand al</w>
inter active</w>
truste es</w>
spr int</w>
angli can</w>
sh ame</w>
mar ty
respec ted</w>
per th</w>
comp rising</w>
b har
dra wings</w>
clu ster</w>
migu el</w>
gorge ous</w>
administr ator</w>
defin i
fri ed</w>
185 4</w>
streng th
g g</w>
t ney</w>
man eu
ble eding</w>
b ent
z ar</w>
re a</w>
colum bus</w>
d ried</w>
st ack</w>
gi ov
loc ality</w>
ym outh</w>
bow s</w>
no ds</w>
fin dings</w>
l or</w>
p ounding</w>
stun ned</w>
le ic
doz ens</w>
ph an
past or</w>
oc ity</w>
it ude</w>
bet a</w>
bai ley</w>
er nest</w>
priv acy</w>
ta i</w>
es ome</w>
lo ren
dur ham</w>
tic kets</w>
eng er</w>
re ig
somer set</w>
copy right</w>
ad mission</w>
dis ab
extra ordinary</w>
or nam
il ers</w>
trac king</w>
dol ph
pri ority</w>
bra ve</w>
intelli gent</w>
re actions</w>
no ti
ser vers</w>
presby ter
so x</w>
n ina</w>
mal colm</w>
il -
paral ym
re id</w>
per formers</w>
lin e-
ri t</w>
ev o</w>
ste ering</w>
jun gle</w>
milwau kee</w>
gra ves</w>
hu b</w>
preten d</w>
om i</w>
af t</w>
syn thesis</w>
atom ic</w>
c ure</w>
185 5</w>
h p</w>
mag nit
no tt
bu bb
mur der
with drawn</w>
o y
in tru
tac tical</w>
life style</w>
lawy ers</w>
consequ ence</w>
str ate</w>
pat ron</w>
bu ck</w>
fi sts</w>
dur ation</w>
prof ession</w>
2 3
pi anist</w>
ing o</w>
lo u</w>
nic ally</w>
br ass</w>
griff in</w>
bu enos</w>
lou dly</w>
r -
pro ven</w>
freest yle</w>
d les</w>
alleg ations</w>
lan cas
enhan ced</w>
apol lo</w>
twenti eth</w>
duc k</w>
col span</w>
bra h
p ru
phenomen on</w>
bon ds</w>
dynam ics</w>
0 00</w>
bel ar
mar ched</w>
r att
sou ls</w>
c ass
u d
de x</w>
cigare tte</w>
ag on</w>
consider ation</w>
terrori st</w>
lancas hire</w>
theore tical</w>
midd le-
an ism</w>
andre ws</w>
be ats</w>
un certain</w>
pe dia</w>
nan dez</w>
nas a</w>
st aged</w>
se di
til ted</w>
control ling</w>
port al</w>
consider ably</w>
lux ury</w>
di ans</w>
v ent</w>
shu a</w>
pro vision</w>
conflic ts</w>
inf all</w>
den y</w>
bas ket</w>
west minster</w>
ki d
p lic
her e
sco tia</w>
galax y</w>
a erial</w>
lime stone</w>
santi ago</w>
dra ws</w>
work shops</w>
lu ther
spi der</w>
ridicul ous</w>
pap er
al be
20 .
str a</w>
te h
re x</w>
ru ined</w>
estim ates</w>
con sen
par ted</w>
ori ties</w>
dom s</w>
un conscious</w>
amuse ment</w>
tra ils</w>
syn the
destro ying</w>
con junction</w>
pro p
sk ating</w>
saf ely</w>
pi ke</w>
sub stance</w>
17 .
185 6</w>
h al</w>
ec cle
gran ite</w>
str as
la ying</w>
stock holm</w>
assum ing</w>
arbit r
han k</w>
gi fts</w>
be ings</w>
ester shire</w>
gi d</w>
u rer</w>
ul u</w>
che er
gran de</w>
referen dum</w>
vi ii</w>
dou g</w>
con sent</w>
ass ment</w>
fl ora</w>
ra p</w>
ed en</w>
cy p
an der
in ev
qu er
compens ation</w>
ex port</w>
ti gh
tan tly</w>
ro t</w>
ru bbing</w>
counter -
w ick
plat eau</w>
furi ous</w>
sol ely</w>
cap s</w>
per -
pen n</w>
t less</w>
h anna</w>
cro p</w>
4 ,000</w>
ke tt</w>
mir anda</w>
d ong</w>
dri fted</w>
men tions</w>
story line</w>
ay e</w>
tic o</w>
185 8</w>
andre a</w>
innov ative</w>
w u
h alls</w>
ab original</w>
run way</w>
gri m</w>
s l</w>
he ath</w>
sha m</w>
pa tho
len der</w>
18 .
develop ers</w>
un ic
sh ining</w>
con go</w>
sur geon</w>
can on</w>
direc ting</w>
ha d
cas ey</w>
ku mar</w>
k han
je wel
gradu ates</w>
ale c</w>
6 ,000</w>
star k</w>
codi ce</w>
fir ms</w>
glaci er</w>
jeal ous</w>
stev ens</w>
ch ry
ri m</w>
c b
tran spar
x ter</w>
mu m</w>
good bye</w>
ac cent</w>
con ceived</w>
hin d
2 7
shi pped</w>
coun sel</w>
millen ni
arm strong</w>
down stairs</w>
_ _
johan n</w>
ro bot</w>
at tract</w>
b assist</w>
ap es</w>
ligh ted</w>
un likely</w>
em ail</w>
dis rup
reha bil
ster ing</w>
y ak
len e</w>
carto on</w>
au dit
sil ly</w>
oak land</w>
li ver</w>
pe st</w>
en zie</w>
plan tation</w>
t c</w>
air field</w>
vali d</w>
z ones</w>
terri fied</w>
ar ro
pro por
ja x</w>
vladi mir</w>
serv ic
heal th
be st
pa vi
goal keeper</w>
observ ations</w>
j ah</w>
st ead</w>
govern mental</w>
9 00</w>
par o
sac ram
rec t</w>
rif les</w>
our selves</w>
dar ling</w>
te -
expla ining</w>
bre w
1 10</w>
mo tors</w>
ari um</w>
pl er</w>
op en-
ash ley</w>
adop tion</w>
ana polis</w>
van ished</w>
ou ri
car ol</w>
hi r
10 1</w>
la ir</w>
tol l</w>
fer din
susp icious</w>
re v.</w>
bud dy</w>
publi shers</w>
ve il
fair y</w>
brun swick</w>
bal lo
terr or
cu te</w>
whit e-
avoi ding</w>
custo dy</w>
bu tt</w>
pil low</w>
vi k
dar ker</w>
w age</w>
recon na
pro claimed</w>
trans fer
specim ens</w>
je ts</w>
de en</w>
swi m</w>
ro vers</w>
el derly</w>
vic inity</w>
185 1</w>
brad ley</w>
di al</w>
pe g</w>
proxim ity</w>
deliber ately</w>
and ra</w>
spec t
willi am
law suit</w>
fo g</w>
ern ity</w>
1 30</w>
lo t
man ga</w>
stro m</w>
g lowing</w>
vin yl</w>
h indu
cas ual</w>
prospec t</w>
ch ea
wic kets</w>
evalu ation</w>
echo ed</w>
at op</w>
gy m</w>
em brace</w>
cy cles</w>
franco is</w>
br **
kic king</w>
competi tors</w>
ho sting</w>
ol ly</w>
n as</w>
for -
inter im</w>
ke en</w>
s ings</w>
cho ices</w>
indi anapolis</w>
accep table</w>
le ase</w>
develop er</w>
refu ses</w>
favor able</w>
a is
glan cing</w>
instruc tor</w>
up graded</w>
de serve</w>
omet res</w>
pi er</w>
zi o</w>
bu st</w>
accep tance</w>
imag ination</w>
fin ale</w>
br** sts</w>
gh ana</w>
exp elled</w>
teen age</w>
s bury</w>
r ational</w>
ida ho</w>
sp ic
las er</w>
l ens</w>
activi sts</w>
sol omon</w>
hea ther</w>
ware house</w>
c led</w>
at ar</w>
so oner</w>
20 -
d w
at ro
wil helm</w>
cu ps</w>
tru m
reconna issance</w>
hu gged</w>
gri ef</w>
car p
new port</w>
archi ve</w>
delic ate</w>
lope z</w>
c ade</w>
incredi ble</w>
in age</w>
foun tain</w>
nick named</w>
open ly</w>
in gh
st el
tre ati
portra its</w>
b anner</w>
t apped</w>
sac ri
sus sex</w>
f aul
eth ics</w>
stad t</w>
bi as</w>
mo bili
et t</w>
185 2</w>
z ers</w>
kil ometres</w>
j ace</w>
argu ments</w>
tren d</w>
mi stress</w>
mon ks</w>
configur ation</w>
al pine</w>
sum mon
bar k</w>
lyn n</w>
om er
co stu
accoun ting</w>
georgi an</w>
to le
stri pped</w>
occur ring</w>
el in</w>
manufac ture</w>
e able</w>
end angered</w>
i st
bur n
d har
ver ses</w>
bel le</w>
aux ili
re di
down load</w>
sophi a</w>
mo ti
pro jec
sur faces</w>
cycl ing</w>
gover ned</w>
jo el</w>
t le
al t</w>
environ ments</w>
shr ine</w>
fe st</w>
cl ari
op tical</w>
re becca</w>
mat ching</w>
g ator</w>
ad ds</w>
may a</w>
pi l</w>
ter n</w>
hol den</w>
list en
di g</w>
am ent</w>
se c</w>
nam ing</w>
acqu ire</w>
la v
meas uring</w>
jo shua</w>
ka therine</w>
conspir acy</w>
courty ard</w>
th ood</w>
f ears</w>
tre mbling</w>
v est
lo d
min eral</w>
i ze</w>
ra infall</w>
del u
mur ders</w>
j ai
v ised</w>
ex cess</w>
ca es
uru gu
compos ers</w>
prob ability</w>
r hin
w ad
se aled</w>
aro se</w>
automob ile</w>
k ru
gl ou
ro tation</w>
vege tation</w>
costu me</w>
sco rer</w>
an us</w>
lan es</w>
gar rett</w>
upri sing</w>
co smo
pu b</w>
embarras sed</w>
crow ded</w>
idi ot</w>
concentr ate</w>
en roll
lu ther</w>
po ckets</w>
tues day</w>
2 2
accomp li
hydro gen</w>
cap abilities</w>
investig ations</w>
mem or
achiev ements</w>
tw ist</w>
man it
dra u
viol in</w>
peti tion</w>
hol mes</w>
doc toral</w>
princ eton</w>
pregn ancy</w>
capit ol</w>
ment ary</w>
predic ted</w>
t as</w>
lear ns</w>
oc ta
-in- chief</w>
an gular</w>
con sumed</w>
blo g</w>
pe di
cal yp
bank rup
fur t</w>
th i</w>
four- year</w>
fe es</w>
int act</w>
expl ored</w>
ab e</w>
inci dents</w>
o z
op hi
re u
davi es</w>
sin king</w>
gam ing</w>
legen ds</w>
c andy</w>
18 40</w>
muse ums</w>
elim ination</w>
tac tics</w>
dimen sions</w>
ic king</w>
ea st-
sav age</w>
sc an</w>
cro s
bacter ia</w>
g lit
inf ected</w>
secre tly</w>
pa ths</w>
decre ase</w>
at ric</w>
with draw
dis k</w>
paki stani</w>
floo ded</w>
imp ati
pol es</w>
mel issa</w>
p r</w>
ec lip
af l</w>
ge ons</w>
sur veil
dri ve
compu ting</w>
suppor ter</w>
sugges tion</w>
y ear-old</w>
tow el</w>
diam on
genu ine</w>
giov anni</w>
t ops</w>
class room</w>
m ack</w>
tra m</w>
s d</w>
geo graphical</w>
clu e</w>
nine teenth</w>
rescu ed</w>
posse ss</w>
rho de</w>
w im
stab ili
po well</w>
im prison
bru s
ren dered</w>
inter ro
integr al</w>
fried rich</w>
d led</w>
k har
en lar
ori entation</w>
au to</w>
cop en
instruc ted</w>
ow ing</w>
dec ree</w>
sen ators</w>
thi gh</w>
l ings</w>
m ing
ti re</w>
form ations</w>
ari us</w>
ed ings</w>
can o</w>
st ole</w>
observ atory</w>
hu a</w>
po ets</w>
evi dent</w>
le af
pe er</w>
pol ar</w>
afric an-american</w>
spi ke</w>
par as
kati e</w>
ow e</w>
depos its</w>
mol ly</w>
ci dae</w>
revol t</w>
b ounded</w>
v and
def end
tel es
anxi ety</w>
sk illed</w>
g ai
ati cs</w>
promis es</w>
en dur
calcul ated</w>
2 4.
ven tion</w>
algorith m</w>
n inten
em on</w>
ron ald</w>
wra p</w>
tr un
185 3</w>
tri stan</w>
vari eties</w>
surveil lance</w>
po orly</w>
mi ghty</w>
high ways</w>
sna p</w>
da i</w>
25 .
fri ghtened</w>
kenne th</w>
superinten dent</w>
o val</w>
comp ounds</w>
publi sh</w>
cur sed</w>
poli tically</w>
chi ef
bom bs</w>
19 .
responsi bilities</w>
a polis</w>
e b
le slie</w>
apart ments</w>
frustr ated</w>
mo ses</w>
mil l
m ation</w>
z el
lon ely</w>
sof t
r ats</w>
gym na
disab led</w>
l one</w>
j ava</w>
u tility</w>
fro st</w>
hur st</w>
photo graph</w>
pau lo</w>
line up</w>
assassin ation</w>
fo rec
mon roe</w>
ri bs</w>
su bor
au g
fr aser</w>
vac ant</w>
car pet</w>
goo d-
,0 0
cre ws</w>
scrip tions</w>
fi lip
cer y</w>
by- election</w>
sp it
tu gged</w>
lar ge-
har dy</w>
184 9</w>
dimen sion</w>
theore m</w>
magnit ude</w>
m emp
mar tha</w>
preci pit
ro be</w>
ch lor
ru in</w>
prec ise</w>
al am</w>
detec ted</w>
chea p</w>
fe ast</w>
car son</w>
w ishing</w>
i z</w>
we l</w>
fra ud</w>
re act</w>
hen ri</w>
oppo sing</w>
f ford</w>
ac claimed</w>
screen play</w>
s den</w>
inqu iry</w>
p att
z hang</w>
land o</w>
cru cial</w>
on wards</w>
cru ci
cu ban</w>
tack les</w>
terror ism</w>
ap p</w>
disc u
vari ants</w>
adju sted</w>
hon ey
ten e
bel ls</w>
lam p</w>
fas cin
d dle</w>
ninten do</w>
tri angle</w>
su res</w>
refu se</w>
l ls</w>
hy m
engli sh-
dan e</w>
d ab
vi g
d ha
al lu
it us</w>
li er</w>
con e</w>
chronic le</w>
torpe do</w>
s ack</w>
trac es</w>
king ston</w>
merchan ts</w>
enroll ment</w>
es cal
sal ary</w>
eigh t-
stric tly</w>
upri ght</w>
w ur
copen hagen</w>
di gging</w>
lay out</w>
ko w</w>
k ling</w>
ess ay</w>
lat eral</w>
inter viewed</w>
destroy er</w>
short- lived</w>
n 't</w>
fr amed</w>
tamp a</w>
p and
di shes</w>
bos nia</w>
mi chel
tu cker</w>
sun shine</w>
ex changed</w>
cz echo
on ate</w>
ha bit</w>
cal eb</w>
presbyter ian</w>
quar tet</w>
dam p</w>
o h
c ence</w>
ve iled</w>
al together</w>
lim bs</w>
gen eva</w>
fit ting</w>
s r.</w>
18 0</w>
enterpri ses</w>
pre sum
tele graph</w>
remember ing</w>
crow ned</w>
stu b
mechan ics</w>
k n
mir acle</w>
key board</w>
whe at</w>
st led</w>
ligh thouse</w>
monum ents</w>
horizon tal</w>
er in</w>
shi m
cr ad
di on</w>
discus sing</w>
alb anian</w>
foli o</w>
in fin
hau l</w>
minim al</w>
o z</w>
wil derness</w>
blow n</w>
surpri singly</w>
cont am
ra h
ro sa</w>
cla ws</w>
di m</w>
ne gl
harmon ic</w>
reyn olds</w>
m at</w>
pen ding</w>
accep ting</w>
condem ned</w>
in timate</w>
contr ary</w>
philosophi cal</w>
ob server</w>
fran z</w>
all- time</w>
cur ves</w>
hen ri
ac claim</w>
e- sex</w>
semi- final</w>
y en</w>
po pped</w>
sh in</w>
so lic
g own</w>
challeng ing</w>
premis es</w>
memp his</w>
mag nific
fle e</w>
cop s</w>
broo ke</w>
ha y</w>
po ison</w>
sen ds</w>
cr ack
health care</w>
discu ssions</w>
sha kes</w>
he ating</w>
bl ades</w>
h ale</w>
con sole</w>
cur tis</w>
x avi
ten -
har ri
den ing</w>
separ ately</w>
consen sus</w>
b out</w>
propos als</w>
deleg ates</w>
saskat che
ge org
bal con
coo k
z ia</w>
sch war
sa xon</w>
zi g</w>
her ald</w>
introduc ing</w>
tun nels</w>
posi tioned</w>
il ly</w>
critic ised</w>
mor tality</w>
can ter
sen sed</w>
saskatche wan</w>
re stri
tro y</w>
2 6.
k ak
x x
ac es</w>
car t</w>
proce edings</w>
c ough
hu go</w>
ob st
gl ad
stat e
slo pes</w>
- and</w>
bow ed</w>
lux em
ti me
star ter</w>
m s
rival ry</w>
th at
pri mi
mol ec
dis appointment</w>
revi ved</w>
ol es</w>
gr ound
simp son</w>
inter sec
dispu ted</w>
os lo</w>
amp li
ner ves</w>
bom ber</w>
mar a</w>
back up</w>
fe ed
paradi se</w>
est y</w>
under lying</w>
any body</w>
speed way</w>
cont acts</w>
sm alle
rep airs</w>
ti um</w>
ec k</w>
bankrup t
under taken</w>
st es</w>
gras p</w>
moroc co</w>
ch ad</w>
ko s</w>
man dy</w>
sc outs</w>
ke es</w>
sun k</w>
it ly</w>
dre ss
kno cking</w>
subor din
box er</w>
arti facts</w>
battali ons</w>
f ati
propag anda</w>
al right</w>
plu m
u ps</w>
dis appear</w>
hi v</w>
bur ger</w>
m h
ne ts</w>
ed mund</w>
???? ????</w>
x ton</w>
w inc
uni fied</w>
bet ty</w>
harmon y</w>
ferdin and</w>
su ited</w>
al istic</w>
promo tional</w>
hin di</w>
be g</w>
ang les</w>
sequ ences</w>
lithu ania</w>
smalle st</w>
pe ered</w>
in tri
em my</w>
equ ality</w>
inter actions</w>
cru shed</w>
conver t</w>
curi osity</w>
re marked</w>
ing redi
in ted</w>
un ci
de served</w>
with draw</w>
treas ury</w>
all music</w>
bl acks</w>
night mare</w>
en i
sp elled</w>
c am</w>
k av
am o
renov ated</w>
mich elle</w>
straigh tened</w>
bal d
found ations</w>
ent ries</w>
organi ze</w>
mil ton</w>
mag nus</w>
he al</w>
8 ,000</w>
we i</w>
phi lan
hen derson</w>
habit ats</w>
privi le
hosti le</w>
cir cus</w>
1. 2</w>
s worn</w>
u li
dan ces</w>
cyp rus</w>
am or
fern ando</w>
answ ering</w>
bal lot</w>
tox ic
g ap
imprison ment</w>
el lie</w>
per former</w>
cru sh</w>
tre m
thor ne</w>
as c
full- length</w>
r ina</w>
q i
o .
2 7.
re per
equ ity</w>
choo sing</w>
strategi es</w>
na to</w>
diplom a</w>
compla ined</w>
al an
se ating</w>
bul lets</w>
lu dwi
sur rey</w>
whit ney</w>
pal at
imple ment</w>
lo ads</w>
ti mo
mar tin
m ama</w>
ne ur
min i</w>
fin est</w>
vel ocity</w>
ess ays</w>
brad y</w>
inclu sion</w>
od ds</w>
after math</w>
flag ship</w>
un clear</w>
three- year</w>
t ones</w>
an or</w>
cru el</w>
decre ased</w>
su r</w>
neighbor s</w>
inv aded</w>
fre ely</w>
blo om
pom er
stea dily</w>
ari stoc
my sti
symbo li
ir i</w>
184 7</w>
h ass
dec ent</w>
brad ford</w>
dan cers</w>
k as</w>
overwhel ming</w>
le p
an ton</w>
ex ag
wi reless</w>
swal low</w>
bankrupt cy</w>
184 6</w>
er es</w>
jo ey</w>
i er</w>
j ar</w>
wy n
o live</w>
e ti
en berg</w>
loc als</w>
dic ally</w>
to e</w>
frag ments</w>
dol ph</w>
mil d</w>
na i</w>
d rank</w>
me yer</w>
manag ers</w>
wel com
ed iting</w>
cre st</w>
basi cally</w>
ma ha
manu scripts</w>
d ge
re mix</w>
dic tionary</w>
collec tor</w>
isab ella</w>
dul l</w>
ami d</w>
zim bab
re hear
s lender</w>
ric a</w>
richar ds</w>
pre vention</w>
fre e-
mal ta</w>
laugh s</w>
withdraw al</w>
molec ules</w>
fro g</w>
re union</w>
millenni um</w>
deci ding</w>
ba hn</w>
exhi bits</w>
pay ments</w>
teen ager</w>
h ep
ra ven</w>
fe u
gastro pod</w>
investig ated</w>
si l</w>
hi ssed</w>
fresh man</w>
sof a</w>
an atom
sha pes</w>
val en
an tha</w>
bat teries</w>
eccle si
tri m</w>
brus sels</w>
pos thum
domin ican</w>
demonstr ation</w>
b is</w>
dev a
compati ble</w>
stron gest</w>
la c</w>
blu e
le is
ap er</w>
r na</w>
d ingly</w>
than k
fr ames</w>
runner -up</w>
advan cing</w>
re solve</w>
scre w</w>
yan ked</w>
sc o</w>
ther ing</w>
richar dson</w>
d z
bor ed</w>
invest ments</w>
v sky</w>
o a</w>
at em
ha ired</w>
gent le
da isy</w>
rep lic
ti ll
coun ting</w>
accor dance</w>
sle eve</w>
di min
cav es</w>
i stan
car lo</w>
str and</w>
cour thouse</w>
le ased</w>
comp ul
renov ation</w>
rodri gu
ti me-
per forms</w>
gu ang
aband on</w>
wood land</w>
re public
f k</w>
mo dest</w>
country side</w>
au ction</w>
hes it
is ely</w>
log ne</w>
twit ter</w>
sol ving</w>
cardi ff</w>
dec eased</w>
bel o
vis itor</w>
whisp ers</w>
hel met</w>
ap ar
bloc king</w>
like wise</w>
organis ms</w>
ib m</w>
teamm ate</w>
stair case</w>
deleg ation</w>
gib son</w>
pu mp</w>
leng ths</w>
bri s</w>
distingu ish</w>
ru s
deter i
le x</w>
chan g</w>
shel f</w>
alexand ria</w>
sup pose
bicy cle</w>
con siders</w>
fl am
surren dered</w>
2 2.
w en</w>
en do
reali zes</w>
gl are</w>
ra v
bel l
da h</w>
brigh ton</w>
ing ed</w>
sh ells</w>
ed gar</w>
fre ed</w>
bar racks</w>
ab sent</w>
re sts</w>
s ang
s lot</w>
ga e</w>
me h
mon te</w>
gen s</w>
consum ers</w>
wis dom</w>
presum ably</w>
18 00</w>
every day</w>
pra iri
demonstr ate</w>
tack le</w>
immun e</w>
stret ching</w>
forbi dden</w>
ra j</w>
sc ar</w>
philan thro
f lar
sti ff</w>
re ward</w>
stor ms</w>
la ps</w>
ine z</w>
super vision</w>
valu ed</w>
welcom ed</w>
we ed</w>
mai den</w>
glen n</w>
so l</w>
recre ational</w>
ri sed</w>
contrac ted</w>
nu ts</w>
republic ans</w>
re mind</w>
sab ha</w>
he y
philosop her</w>
fem inist</w>
ment or</w>
tu bes</w>
pl ymouth</w>
mar ri
hy de</w>
inten si
consist ently</w>
abstr act</w>
armen ia</w>
se y
he im
g u</w>
convic tion</w>
n im
alb any</w>
regim ents</w>
t su
t ally</w>
t cher</w>
accur acy</w>
sub species</w>
rele gation</w>
oun dings</w>
kir k
bibli cal</w>
re son
ma e</w>
mo ist</w>
dan ced</w>
distr acted</w>
luther an</w>
gent leman</w>
a ver</w>
ir ri
d ore</w>
fi li
organi zing</w>
p ai
stre aming</w>
valent ine</w>
ger man
communic ate</w>
machin ery</w>
ab du
sec ular</w>
finan ci
sculp tor</w>
regul atory</w>
sophi sti
lac ked</w>
vi k</w>
elec tri
k hu
wal t</w>
continu ously</w>
xavi er</w>
el yn</w>
one- year</w>
rai ders</w>
label s</w>
an u
bel grade</w>
che z</w>
3 5
bo hem
lou der</w>
2 8.
consul ting</w>
the l</w>
lu st</w>
val ve</w>
telec om
lo vers</w>
sn ail</w>
n g</w>
suppose dly</w>
angel o</w>
nic ole</w>
18 30</w>
k end
3 60</w>
pe l</w>
fro wn</w>
18 12</w>
air y</w>
sh attered</w>
bl er</w>
gro o
ly on</w>
bat man</w>
s words</w>
3 0-
depic ting</w>
opini ons</w>
prec isely</w>
tan gular</w>
l gb
g b</w>
mon i
vol c
tech nically</w>
titu des</w>
ch ef</w>
per ed</w>
tra y</w>
fol ding</w>
lad der</w>
ic eland</w>
nad u</w>
1 /
ne o-
gener a</w>
j el
2 3.
pi zza</w>
recur ring</w>
n r
tra vis</w>
fl ouri
ff ing</w>
alb ania</w>
ga zed</w>
land ers</w>
su it
spe eds</w>
restri al</w>
cu t
y as
q ing</w>
bel la</w>
mp er</w>
proce ed</w>
hypo thesis</w>
c d
rec tangular</w>
auxili ary</w>
-y e</w>
snor ted</w>
comm it</w>
ac compan
bom bers</w>
ru m</w>
pol o</w>
balan ced</w>
accompan ying</w>
catho lics</w>
k ata</w>
tra iled</w>
b ats</w>
up ward</w>
mas cul
present ing</w>
gn ment</w>
sp ur</w>
prevent ing</w>
mar ina</w>
3 0,000</w>
bri ga
achiev ing</w>
a v</w>
u als</w>
flow n</w>
ge ological</w>
governor s</w>
d ana</w>
en se</w>
ol d
pen ny</w>
wind sor</w>
b age</w>
f .
sc ep
flow ering</w>
slov ak</w>
exc iting</w>
ff le</w>
volc anic</w>
cerem onies</w>
kin der
an kle</w>
mi xing</w>
yn n</w>
' ne
deploy ment</w>
mor rison</w>
sla pped</w>
testi mony</w>
canter bury</w>
proce eds</w>
n aci
thor n
prot agonist</w>
tal ented</w>
flic k
i ly</w>
ber g
mc donald</w>
fossi l</w>
ta xi</w>
bur ke</w>
surpri sing</w>
ques tioning</w>
spring field</w>
an to
cam bo
hand -
ti us</w>
shir ts</w>
on na</w>
loc king</w>
g ag
hi r</w>
narro w
femin ine</w>
theod ore</w>
ch u</w>
sa i</w>
bel fast</w>
mac ro
plac ement</w>
refl ecting</w>
g ear
ou ting</w>
to tal
quarter -
recep tor</w>
corn wall</w>
sel ler</w>
post al</w>
diagno sed</w>
ble ssed</w>
suspici on</w>
rodrigu ez</w>
an thology</w>
ru lers</w>
thre sh
compla ints</w>
gree ted</w>
st ell
ci li
happi ly</w>
rel s</w>
bab ies</w>
en closed</w>
wi zard</w>
treas urer</w>
nap les</w>
clar a</w>
pro portion</w>
indi e</w>
semi finals</w>
lithu anian</w>
g .
ste in
cr ater</w>
conv ent</w>
geo graphy</w>
bur den</w>
em press</w>
quali ties</w>
d as
en cyclo
blow ing</w>
gu atem
d all</w>
ru by</w>
har d-
embar ked</w>
n most</w>
vac u
life -
ar is</w>
dra ined</w>
car ne
discipl inary</w>
counc ils</w>
si le
gu essed</w>
del e
spon sor</w>
y d</w>
f its</w>
mer edith</w>
ligh t-
fant astic</w>
sav annah</w>
percep tion</w>
mon tene
game play</w>
or lando</w>
sculp tures</w>
em i</w>
st on
ste aling</w>
n ac
em in
semi- finals</w>
lau ren</w>
ale k
rein forced</w>
shut tle</w>
o o</w>
bri en</w>
184 5</w>
expen se</w>
hi de
baron et</w>
in duced</w>
wy oming</w>
inspec tion</w>
4 9
cri tically</w>
manit oba</w>
k led</w>
tra iner</w>
ven ess</w>
awar d-
certi fication</w>
in ter</w>
ro tten</w>
maj esty</w>
dag ger</w>
s war
ancest ors</w>
ug anda</w>
squee ze</w>
do g
reluc tantly</w>
practi tion
b as</w>
k ro
e iro</w>
free way</w>
prohi bited</w>
do se</w>
hi p-
sh ments</w>
mun ic
mo s</w>
expec tations</w>
wrec k</w>
commerci ally</w>
in ely</w>
ex claimed</w>
do ver</w>
1. 1</w>
hel ena</w>
jan et</w>
e go</w>
ali ke</w>
reti re</w>
wic ked</w>
ti pped</w>
nicol as</w>
p russia</w>
vol tage</w>
avail ability</w>
st ine</w>
vi sions</w>
im ported</w>
anticip ation</w>
d well</w>
au r</w>
gen ic</w>
ko so
3 50</w>
lan caster</w>
bott les</w>
ro ses</w>
mechan isms</w>
t ments</w>
lo ch</w>
ag h</w>
diff er</w>
succ essive</w>
an e
num er
dest iny</w>
cap ability</w>
sacri fic
ra pper</w>
ster eo
kur t</w>
missi les</w>
co hen</w>
dol l</w>
hu mili
app a</w>
knu ck
z ha
ti que</w>
sti cks</w>
arch er</w>
cat ches</w>
0. 5</w>
mini -
surr oundings</w>
183 7</w>
k al</w>
air -
drive way</w>
lin king</w>
mari on</w>
thor pe</w>
sum mers</w>
resear cher</w>
telecom munic
b ce</w>
inf ant</w>
sloven ia</w>
2 9
du chy</w>
bl amed</w>
rabb it</w>
bo thered</w>
li d</w>
presid ents</w>
al located</w>
sub tle</w>
istan bul</w>
transmit ter</w>
on ica</w>
reb ounds</w>
ed win</w>
tel ep
un aware</w>
ta ker</w>
tel ev
lac king</w>
hali fax</w>
inten tions</w>
come dian</w>
de m</w>
techno logical</w>
yi eld</w>
or ship</w>
1 25</w>
pul sion</w>
e do</w>
pre fer
sk o
1. 6</w>
gu m</w>
gen res</w>
eur o</w>
prece ding</w>
v ed
ra ids</w>
ga ins</w>
conqu ered</w>
ant arctic</w>
prote sted</w>
le um</w>
fru its</w>
ro chester</w>
ju ice</w>
sty li
anticip ated</w>
consoli dated</w>
15 00</w>
y ear-
new er</w>
b ard</w>
pa ved</w>
at on</w>
ah med</w>
thri ller</w>
ink led</w>
s berg</w>
ic als</w>
my thology</w>
shou ting</w>
rober tson</w>
l lan
refu sing</w>
armor ed</w>
201 9</w>
fa st
tr o</w>
do ve</w>
fat al</w>
mer ri
pic ks</w>
jack ie</w>
i dol</w>
sp elling</w>
bur nt</w>
ili a</w>
cru iser</w>
dy s
cal gary</w>
ec hes</w>
hom eland</w>
ta p</w>
at ers</w>
sud an</w>
k um
ass aul
prof its</w>
invest ed</w>
char m</w>
2 6
at eral</w>
model ing</w>
ri ties</w>
ou x</w>
fit ness</w>
vau gh
ti se</w>
g t</w>
vi al</w>
gra vel</w>
adop t</w>
elli ott</w>
conte stants</w>
out fit</w>
ren s</w>
inaugur ated</w>
car a</w>
sett ings</w>
amaz on</w>
bor dered</w>
demo li
arm oured</w>
p russian</w>
sar cas
dep ths</w>
real istic</w>
on ry</w>
bi tion</w>
mon te
emigr ated</w>
w i</w>
cooper ative</w>
ru mors</w>
gr inning</w>
nee ding</w>
sun set</w>
provi sional</w>
americ as</w>
as sed</w>
ra h</w>
distur bed</w>
bo d
c oul
ann es</w>
sli pping</w>
civili zation</w>
refer ee</w>
dis orders</w>
aver aged</w>
184 1</w>
184 4</w>
filip ino</w>
mich el</w>
co- founder</w>
mat ernal</w>
long time</w>
tox ic</w>
my th</w>
vac ation</w>
ke -
u ssr</w>
fac tories</w>
pavi lion</w>
an onymous</w>
care ers</w>
un -
to ys</w>
ran kings</w>
ho loc
electr on</w>
lou is
constitu ted</w>
refl ects</w>
too th</w>
k ay</w>
im men
m its</w>
re servation</w>
fis cal</w>
tim ing</w>
les son</w>
si de-
g ali
e ked</w>
rein for
pollu tion</w>
g ou
16 0</w>
fortun ate</w>
real ised</w>
el an
envel ope</w>
ma k
car ing</w>
bor ing</w>
wat ts</w>
present er</w>
mu mbled</w>
ti st</w>
sec tors</w>
re fin
ber ed</w>
air borne</w>
pin ned</w>
s worth</w>
ele anor</w>
reluc tant</w>
pag e
gest ured</w>
facil itate</w>
ali g
in da</w>
con f
gar ten</w>
roman s</w>
d j
sk ins</w>
nur ses</w>
novel ist</w>
er rors</w>
vice- president</w>
ha yes</w>
tri gg
la va</w>
neigh b
baro que</w>
gu sta
gi c</w>
initi atives</w>
14 0</w>
al der
ra ja</w>
six ty</w>
trag edy</w>
constan tin
con federation</w>
c is
sm outh</w>
bu zz
col oured</w>
bat ted</w>
l ori
2. 0</w>
hat red</w>
log s</w>
pa stor
di sh
neighbour hood</w>
sp lit
sa k
x y
ath y</w>
trans form</w>
li qui
at tering</w>
liv est
thor n</w>
advant ages</w>
weak ness</w>
m all
hop kins</w>
ske p
w ak
comp rised</w>
trium ph</w>
join tly</w>
cogni tive</w>
ai ded</w>
occup y</w>
part -time</w>
m med</w>
dis pos
h f</w>
g p</w>
am -
at ories</w>
ra o</w>
gar t</w>
assi s</w>
mand atory</w>
sail ors</w>
tro op</w>
pea ks</w>
o '
f rit
ph s</w>
cur ling</w>
fai thful</w>
bo eing</w>
min ers</w>
c ic
s ore</w>
sp a</w>
est ing</w>
sam e-sex</w>
wing span</w>
remn ants</w>
gui del
don ations</w>
iri s</w>
man tle</w>
see ks</w>
mo b</w>
charle ston</w>
c p</w>
ro om
ch at</w>
comman ds</w>
torn ado</w>
provi der</w>
frank furt</w>
inti mid
li ers</w>
son ic</w>
anxi ous</w>
wher ever</w>
gr at
pi g
inven tion</w>
ho ff
enti ties</w>
requ ests</w>
rac e
war k</w>
cycl one</w>
om or
ea ster</w>
app li
exerc ises</w>
sc ow
pot tery</w>
edmon ton</w>
par all
explo rer</w>
s on-
th ia</w>
elec t</w>
doub led</w>
sub way</w>
chro mo
g ay
g able</w>
cou pled</w>
ag ne</w>
shar k</w>
ta m</w>
accommo dation</w>
ap plying</w>
gari on</w>
f angs</w>
je w
15 -
scre ams</w>
sh out</w>
partic le</w>
bla ir</w>
moment um</w>
ta -
war n</w>
un successfully</w>
end less</w>
elim inate</w>
1. 3</w>
ende av
kidn apped</w>
primi tive</w>
s ers</w>
du chess</w>
shoo ts</w>
neighbor hoods</w>
lan a</w>
ambu lance</w>
she er</w>
stro ked</w>
ris ks</w>
mo ss</w>
jessi e</w>
re su
po o
ari ans</w>
butt ons</w>
ed itors</w>
k on</w>
ec raft</w>
pu pil</w>
membran e</w>
to yo
zz le</w>
cal li
rec tor</w>
are z</w>
back wards</w>
c f</w>
ha st
willi e</w>
persu aded</w>
j ill</w>
c ay
govern ance</w>
hope fully</w>
4. 5</w>
p em
pro sp
pi g</w>
gg ins</w>
t ably</w>
ow s</w>
port smouth</w>
stand ardi
ss man</w>
cur tain</w>
ance stry</w>
am bro
juli us</w>
wh ar
objec tives</w>
eri k</w>
classi cs</w>
con s</w>
coordin ates</w>
inter ference</w>
gener ating</w>
vil la
gymna sium</w>
t att
bur g
depic ts</w>
ani um</w>
ga elic</w>
en h
o ath</w>
di ve</w>
char itable</w>
ac credited</w>
mit ting</w>
n .
ab lo</w>
fre y</w>
zu rich</w>
183 6</w>
y ana</w>
ca ine</w>
carri ers</w>
k les</w>
af c</w>
na th
dic t
stat ues</w>
re treated</w>
anno yed</w>
adv ances</w>
guaran tee</w>
trou bled</w>
par ishes</w>
respon ses</w>
g op
tar ies</w>
cerem oni
expl oring</w>
ri p</w>
fl in
ten ds</w>
all- american</w>
rain bow</w>
differ ently</w>
port folio</w>
trac y</w>
wat ch
ast on
entreprene ur</w>
en tic
wrest ler</w>
bar nes</w>
up date</w>
don o
co w</w>
cy n
lead ed</w>
lo ans</w>
ah mad</w>
ste el
embe dded</w>
re united</w>
de stri
aci ous</w>
f ton</w>
twel f
hu mor
de vil
jon as</w>
lo gue</w>
car tri
br o</w>
abor tion</w>
th ar
gener als</w>
squad rons</w>
wy n</w>
desig ners</w>
it y-
25 th</w>
183 2</w>
ss i</w>
hat ch</w>
detec tion</w>
d ash</w>
an gu
char ted</w>
j ecting</w>
sub family</w>
gg led</w>
rol ler</w>
l ately</w>
all y-
le tte</w>
correspon dence</w>
de bris</w>
fle tcher</w>
fan cy</w>
k ann
craw ford</w>
gr ati
scan ned</w>
narrow ly</w>
wol ver
2 9.
ra fa
co stum
mar ching</w>
coordin ator</w>
si es</w>
super natural</w>
amal gam
el ding</w>
po p
an alo
mi kha
un es</w>
man date</w>
bar n
plan ets</w>
scre ening</w>
am used</w>
ran o</w>
mem ori
high land</w>
assu mption</w>
specim en</w>
exam ine</w>
nag ar</w>
measu rement</w>
dr un
sav ings</w>
re- election</w>
p ity</w>
pun ched</w>
decor ative</w>
stu ffed</w>
f ric
on ne</w>
uni forms</w>
pharmac eu
on t</w>
v ei
in as</w>
thresh old</w>
al ine</w>
livest ock</w>
i ors</w>
ab dul
fil tr
r atic</w>
ss -
hec tor</w>
k ia</w>
tex t
183 8</w>
joh ns</w>
ced ar</w>
oun ce</w>
mi le
correc tly</w>
ti ly</w>
vari ables</w>
reg ent</w>
pat ted</w>
- class</w>
graph s</w>
lic ence</w>
comman ders</w>
no bel</w>
del igh
remin is
sp ur
mad ame</w>
pro jected</w>
hu t</w>
peri ph
x ity</w>
rever end</w>
di mit
comb ine</w>
ko vic</w>
vill agers</w>
weak ened</w>
n ash</w>
un veiled</w>
stro de</w>
oo s</w>
acade mic
gen ius</w>
183 9</w>
encoun ters</w>
angel a</w>
doro thy</w>
st ad</w>
anti qu
v ish
gra y
fore ig
vel vet</w>
he tero
ber gen</w>
fer gu
over night</w>
bun de
dr on</w>
k not</w>
cla use</w>
bal tic</w>
a ve</w>
ran dy</w>
zo e</w>
c enti
in er
d ner</w>
pe destri
lic king</w>
ob taining</w>
investig ating</w>
ou tw
sa u</w>
1. 4</w>
out lets</w>
cri mson</w>
auto biography</w>
fran ces</w>
184 2</w>
bad ge</w>
183 5</w>
geome try</w>
- a</w>
ribb on</w>
ele gant</w>
near -
har m
cont acted</w>
ine es</w>
cy ber
mb a</w>
divi de</w>
chec k
go -
run ners</w>
f ish
in ae</w>
we ve</w>
dist or
chur chill</w>
gas p</w>
gw en</w>
ess ence</w>
ze go
high lighted</w>
deal er</w>
bu s
cla w</w>
sto rey</w>
volun tary</w>
wag ner</w>
' it</w>
stra it</w>
li b
mor ton</w>
marke ted</w>
a via</w>
ol d-
d ment</w>
el ded</w>
agu a</w>
hip- hop</w>
ri ot</w>
activ ation</w>
son ville</w>
mas ses</w>
18 -
oper ative</w>
nat alie</w>
t arian</w>
? -
ex am</w>
web sites</w>
th ames</w>
asse m
v ati
carp enter</w>
ell an</w>
expres sions</w>
mec h
st em
ac ute</w>
haun ted</w>
sho t
soverei gn</w>
fi ers</w>
encour aging</w>
award- winning</w>
ic y</w>
alexand ra</w>
contem pl
re gained</w>
cl a</w>
convers ations</w>
str ous</w>
gonz ale
sp ells</w>
dem o</w>
func tioning</w>
drag ging</w>
st ling</w>
am a
sw an</w>
7 0
est onia</w>
us -
vege tables</w>
in finite</w>
sur ge</w>
strugg les</w>
they d</w>
pri zes</w>
swi f
incredi bly</w>
jan a</w>
ecu ador</w>
wr ong
t ong
em an
lau rence</w>
hi a</w>
rehabil itation</w>
ro th</w>
mission aries</w>
bu g</w>
pro secution</w>
integr ity</w>
gab e</w>
preten ding</w>
2 4-
poli cem
pi pel
hur ting</w>
yel low
as tical</w>
mes o
ter race</w>
ju n</w>
thro ws</w>
p ar</w>
syn ago
eter nal</w>
pen sion</w>
sa w
large- scale</w>
ar che
184 3</w>
dam on</w>
phil lip</w>
i i
cro w</w>
rati on
me ts</w>
vo l</w>
tan z
rec oun
regul ated</w>
ne o</w>
g ha
nom inee</w>
g ow
ff er
premi ership</w>
balcon y</w>
po tter</w>
ac ri
fil ter</w>
u seless</w>
tal ents</w>
shar on</w>
si ding</w>
pati ence</w>
ag nes</w>
epi de
no bility</w>
promin ence</w>
swee the
prece ded</w>
or g</w>
st all</w>
form ats</w>
chi ps</w>
a xi
resid es</w>
guaran te
gentle men</w>
de v</w>
to by</w>
cal vin</w>
hy dr
16 -
immigr ant</w>
tribun e</w>
comb ining</w>
knock out</w>
yan kees</w>
de fl
my r
krish na</w>
t land</w>
car roll</w>
ver a</w>
op ted</w>
corn ell</w>
her zego
summon ed</w>
bald win</w>
es man</w>
a ja</w>
mo aned</w>
ap est</w>
con sor
ma ple</w>
spor t
sh annon</w>
hom eless</w>
ob se
rec y
i des</w>
pu rely</w>
wan der
for bes</w>
and ro</w>
lo v</w>
ta un
cor al</w>
can vas</w>
carne gie</w>
pe i</w>
' brien</w>
p our</w>
per t</w>
diagno sis</w>
st av
luxem bourg</w>
re viewer</w>
stri ker</w>
n ar</w>
sing er-
cool ing</w>
he el</w>
ster ling</w>
recommend ations</w>
accor dingly</w>
lac ks</w>
rever sed</w>
bur ma</w>
ss en</w>
dwar f</w>
la k
luci en</w>
alge bra</w>
v ault</w>
alli son</w>
advoc ated</w>
par ach
nit ro
salv ador</w>
co logne</w>
conserv atives</w>
sand wich</w>
per u
sand stone</w>
pursu ing</w>
long ed</w>
sub tropical</w>
su ck</w>
corpor ations</w>
max well</w>
o de</w>
al y</w>
mamm als</w>
e us</w>
d ling</w>
d ging</w>
z ak
ni xon</w>
war rant</w>
co ve</w>
cl ergy</w>
win ston</w>
th less</w>
de func
we st-
employ er</w>
ti bet
du de</w>
war ded</w>
mean ing
ch est
en g</w>
mac donald</w>
line- up</w>
wash ing</w>
tat too</w>
det ect</w>
tenden cy</w>
u k
s v
ag enda</w>
ad am
o i</w>
ter a</w>
bor rowed</w>
fossi ls</w>
st al</w>
am elia</w>
termin ated</w>
fea thers</w>
belo ved</w>
en ri
du r</w>
win ni
prairi e</w>
re z</w>
na p</w>
russi ans</w>
defunc t</w>
bro s.</w>
h n
d f</w>
gr ams</w>
tu ber
diplom at</w>
van der
mon arch</w>
new com
ph i</w>
gu jar
day light</w>
equ ations</w>
buddhi sm</w>
clo ak</w>
chore o
deri ves</w>
en acted</w>
wra pping</w>
high lights</w>
wat ches</w>
indic ation</w>
patri ots</w>
con rad</w>
so lo
cap turing</w>
al bi
gonzale z</w>
no dding</w>
swe ep</w>
si us</w>
po ster
buil der</w>
appreci ated</w>
shi elds</w>
fre ak</w>
cow boys</w>
p s
excep tions</w>
twelf th</w>
lea p</w>
viol ation</w>
sympa thy</w>
in formal</w>
se oul</w>
ki dding</w>
ver bal</w>
avi an</w>
is o</w>
dra inage</w>
con stra
sket ch</w>
wav ing</w>
gg ling</w>
ch us</w>
evol u
lo o</w>
shi py
dram atically</w>
ta ils</w>
mor pho
explo sive</w>
el eph
u ous</w>
sp ati
tr ash</w>
san sk
2 8
pan ties</w>
h ound</w>
te asing</w>
gar s</w>
physi cians</w>
corp se</w>
ha uled</w>
ag e
daw son</w>
syn thetic</w>
gho sts</w>
th or</w>
pi x
leic ester</w>
se am
wri sts</w>
les bian</w>
measu rements</w>
ro ar</w>
tr ini
char ming</w>
stam p</w>
eleph ant</w>
de fi
vo id</w>
arc ade</w>
enh ance</w>
fav ored</w>
j ules</w>
ol ine</w>
neigh bor</w>
pl ague</w>
bar b
audit orium</w>
sophisti cated</w>
appe aled</w>
side walk</w>
endor sed</w>
apologi ze</w>
t ali
sur gical</w>
lat e-
john ston</w>
mete or
gi br
zimbab we</w>
ex tr
weigh ed</w>
battle field</w>
ni er</w>
inf lic
domin ic</w>
greg or</w>
resur rec
org ans</w>
alter n
harv est</w>
mo des</w>
inc eption</w>
exper tise</w>
bab e</w>
as cen
se ments</w>
k la
abbrevi ated</w>
ti ghter</w>
mo or</w>
secu rities</w>
betra yed</w>
toi let</w>
pi pes</w>
fun dra
s ans</w>
st int</w>
50 0,000</w>
mart inez</w>
op y</w>
pon ti
re adi
go tt
embar r
tu b</w>
ch asing</w>
po ds</w>
fi ji</w>
sa c</w>
princ es</w>
mon key</w>
cont ing
man ned</w>
expen ses</w>
p leaded</w>
san to</w>
briga dier</w>
w we</w>
col league</w>
un official</w>
ha b
ethiop ia</w>
glimp se</w>
hom er</w>
flan k</w>
ta k
ul ster</w>
do yle</w>
cly de</w>
m ice</w>
spar k</w>
cran e</w>
l ero
trade mark</w>
h t
ry der</w>
ch av
par am
sal on</w>
cl are</w>
scre ens</w>
enthusi asm</w>
ad dresses</w>
sw inging</w>
asy lum</w>
ar k</w>
at ra</w>
king doms</w>
pir ate</w>
con ces
mu r</w>
develop s</w>
r and</w>
au s</w>
ham mer
south ampton</w>
ri des</w>
ci de</w>
sad ness</w>
brun o</w>
sax oph
ri gid</w>
ran ger</w>
mon archy</w>
oc curren
provi ders</w>
conserv atory</w>
system atic</w>
comple xity</w>
hom est
al ter</w>
col a</w>
chem icals</w>
y er
ol k</w>
mon a</w>
brew ery</w>
sig nat
finger tips</w>
sent ences</w>
guidel ines</w>
v ap
min t</w>
spec ulation</w>
carni val</w>
ludwi g</w>
me try</w>
el u
ji ang</w>
fli r
louis ville</w>
bo o</w>
n g
sher man</w>
f are
est e</w>
ca o</w>
ass in</w>
gu in
cle aned</w>
t ative</w>
bac on</w>
revel ation</w>
bu cks</w>
possi bilities</w>
cir cled</w>
stat ute</w>
ran ged</w>
de acon</w>
ag as
mel an
fl y
struc tured</w>
the med</w>
profession ally</w>
en vi
dri ft</w>
k ang
spon sorship</w>
ver b</w>
au st</w>
fol kl
compar able</w>
sou p</w>
inten sive</w>
on ey</w>
trac ked</w>
flag s</w>
cho ked</w>
readi ly</w>
stre et
beat les</w>
cle ver</w>
u i</w>
lo k</w>
inter act</w>
c estershire</w>
bio graphical</w>
human itarian</w>
gall eries</w>
enlar ged</w>
constantin ople</w>
swif tly</w>
i da</w>
ter med</w>
repor ters</w>
traff icking</w>
b ates</w>
par amount</w>
glo ves</w>
rho des</w>
an es</w>
whi p</w>
theat ers</w>
evangel ical</w>
r oni
wal sh</w>
sam antha</w>
ic ker</w>
bri a</w>
mis h</w>
tar es</w>
c w</w>
re opened</w>
ali gnment</w>
w ade</w>
w ool</w>
schem es</w>
explic itly</w>
jer k</w>
exc essive</w>
ger man-
defen ders</w>
as set</w>
l ace</w>
ati on-
me o</w>
18 15</w>
or chi
cu is
25 ,000</w>
koso vo</w>
under water</w>
hon da</w>
mad onna</w>
pra y</w>
jud ged</w>
eng aging</w>
model ed</w>
com promise</w>
ab bot</w>
heavi er</w>
maced onia</w>
herzego vina</w>
gl oria</w>
by pass</w>
albe it</w>
shi fts</w>
ob serve</w>
high lands</w>
green e</w>
ill -
guit ars</w>
gur u</w>
iv ory</w>
transm itted</w>
compani ons</w>
te aches</w>
scand in
dispu tes</w>
loo sely</w>
indi cat
parti san</w>
excep tional</w>
st ays</w>
din er</w>
loun ge</w>
it an</w>
bar ton</w>
ver te
advis er</w>
en z
hi p
dec oration</w>
co- founded</w>
defin es</w>
p ecu
al er
spher ic</w>
abdu l</w>
ar se</w>
ish i</w>
po ker</w>
esp n</w>
timo thy</w>
po sit
po ly</w>
chair ed</w>
black -
con fined</w>
fr action</w>
parame ters</w>
ter restrial</w>
15 ,000</w>
conta iner</w>
li ck</w>
be es</w>
av eng
com part
mel ted</w>
z an</w>
correspon dent</w>
g ard</w>
w es</w>
craw led</w>
shru g</w>
re fur
laun ching</w>
m ney</w>
al ma</w>
expres sway</w>
un sure</w>
fre i
whit es</w>
sy rac
10 5</w>
ch assis</w>
temp er</w>
bav aria</w>
re stra
cla d</w>
hoo ked</w>
d der</w>
sw amp</w>
lu ck
petro leum</w>
re ds</w>
publi city</w>
chron ic</w>
wal k
cro ft</w>
ten ham</w>
aff ection</w>
win ters</w>
new man</w>
scre ened</w>
finan cing</w>
a post
chor d</w>
rit a</w>
swe at
ra u
consec rated</w>
cc i</w>
provi dence</w>
in stances</w>
re agan</w>
7. 5</w>
mi stakes</w>
pp o</w>
is ha
tri logy</w>
bru tal</w>
quanti ty</w>
d airy</w>
ai c</w>
c ans</w>
mu sh
modu le</w>
po s</w>
bo s</w>
dis solution</w>
don na</w>
ker ry</w>
del icious</w>
control ler</w>
7 50</w>
lun ar</w>
holi days</w>
sweethe art</w>
fa ils</w>
ish a</w>
juven ile</w>
ra pha
da emon</w>
new found
depu ties</w>
re gain</w>
mar ker</w>
sel ec
ug u</w>
councill or</w>
i p</w>
rafa el</w>
be aches</w>
ni e
progre ssed</w>
seven -
pe pper</w>
chi lean</w>
wa king</w>
simil arities</w>
all- ireland</w>
cinem ato
1. 8</w>
teach ings</w>
b l</w>
0. 1</w>
fol ds</w>
flow ed</w>
au d
ali d</w>
all i</w>
cele bri
ad en</w>
y ne</w>
an as</w>
im a</w>
tre sses</w>
holoc aust</w>
par ap
so vie
ca iro</w>
gam bling</w>
t aller</w>
shi vered</w>
gener ous</w>
heart beat</w>
t any</w>
w re
no tre</w>
identi fying</w>
web b</w>
now -
lyn ch</w>
jewel ry</w>
cli ck</w>
con firm</w>
transl ations</w>
su tton</w>
po ols</w>
kaz akh
si lic
18 14</w>
es sing</w>
fran co</w>
cop a</w>
super -
shep herd</w>
o vic</w>
thre ad</w>
emis sions</w>
ir regular</w>
vi gor
gate way</w>
ou rable</w>
gi deon</w>
jan eiro</w>
pi st
bru shing</w>
m ound</w>
vacu um</w>
malay sian</w>
thorough ly</w>
lo b
cent ric</w>
spect ators</w>
illustr ations</w>
m oul
star t
r er
dist ances</w>
ill o</w>
survey s</w>
d h</w>
bi an
na ve</w>
guar ded</w>
mat ing</w>
commission ers</w>
erup ted</w>
tu ally</w>
pen gu
euro vision</w>
imag ing</w>
fin alist</w>
aw esome</w>
flu shed</w>
f ou
sub mit</w>
deleg ate</w>
rese mble</w>
sp ear
car bon
wor d
spo kes
pil lars</w>
ec ological</w>
ge off
pap al</w>
aster oid</w>
caes ar</w>
de scen
demoli tion</w>
lgb t</w>
pla que</w>
nott ingham</w>
rec tly</w>
y ah</w>
ti onist</w>
un happy</w>
lu min
mar i</w>
thir ds</w>
niger ian</w>
f en</w>
feed back</w>
seas onal</w>
ai dan</w>
ori ental</w>
val leys</w>
compla int</w>
el an</w>
vac c
par agu
whi pped</w>
dis belief</w>
mid way</w>
hec tares</w>
a very</w>
ta sted</w>
te ens</w>
fa ther
sympa thetic</w>
ous y</w>
celebr ations</w>
fab ric
l assi
bu sh
me g</w>
mascul ine</w>
n c</w>
j agu
el event
k yo
gu ad
te ddy</w>
under took</w>
ail s</w>
newfound land</w>
celebri ties</w>
se i</w>
nor ton</w>
emer ge</w>
no .
x box</w>
lap top</w>
fin ishes</w>
poli shed</w>
winni peg</w>
li a
cor in
met als</w>
nor a</w>
vel ed</w>
7 ,000</w>
te ased</w>
sal mon</w>
fergu son</w>
constitu te</w>
regar ds</w>
flic ked</w>
h our
deci sive</w>
leng thy</w>
apo logy</w>
al oud</w>
st ella</w>
ra e</w>
fri ger
pat ron
ph ine</w>
super man</w>
august us</w>
ful ness</w>
cat alogue</w>
tra iling</w>
ern st</w>
en i</w>
ch et</w>
mack enzie</w>
cel lular</w>
elevent h</w>
all a</w>
sto ke</w>
cli ffe</w>
virtu e</w>
di a
pi per</w>
off shore</w>
si p
tic ism</w>
k ine
go ssi
shi ma</w>
loc ker</w>
prof essors</w>
aber deen</w>
a ins</w>
ch un
te amed</w>
ren ted</w>
ox id
b jor
ph ases</w>
enab ling</w>
st ems</w>
shud dered</w>
p ouring</w>
y acht</w>
183 4</w>
hy p
religi ons</w>
ap a</w>
un employment</w>
naci onal</w>
sansk rit</w>
u cla</w>
ambi tious</w>
appoin ting</w>
nerv ously</w>
syrac use</w>
men u</w>
1. 7</w>
utili zed</w>
broad er</w>
pseu don
ecclesi astical</w>
um bre
dar win</w>
del ight</w>
substan tially</w>
convinc ing</w>
sici ly</w>
magnific ent</w>
in do-
min ded</w>
swit ching</w>
broadca ster</w>
y man</w>
spac ecraft</w>
lit ur
hur ling</w>
label ed</w>
s wore</w>
ra ven
o ked</w>
t ings</w>
ad ren
ash tra</w>
metal lic</w>
am in</w>
speci alty</w>
ul tra
beg ged</w>
pal e
zz i</w>
dischar ge</w>
in herit
ne al</w>
diamon ds</w>
cat cher</w>
pyrami d</w>
y early</w>
dedic ation</w>
nine teen</w>
new s
lau rel</w>
sun ny</w>
ado le
conveni ent</w>
mo ck</w>
stam ps</w>
lingu istic</w>
or o</w>
fri gh
ques tion
aes thetic</w>
lim a</w>
ic -
ic ked</w>
con sol
as he</w>
cou sins</w>
eth ical</w>
moon light</w>
han di
me als</w>
port able</w>
exclu ded</w>
re taining</w>
part nered</w>
wi ki
whi s
di cal</w>
zz o</w>
h ack
bu bble</w>
it v</w>
ni ece</w>
cal mly</w>
s ations</w>
hol t</w>
san chez</w>
ut terly</w>
exag ger
fol ks</w>
fun k</w>
labor atories</w>
lea k</w>
suff iciently</w>
brea sts</w>
re friger
bl ink</w>
ve in</w>
moun tain
bud apest</w>
t ana</w>
sh iny</w>
1, 3
ex otic</w>
que z</w>
brid ge
pre ference</w>
wil low</w>
ty pho
tion ality</w>
b .a.</w>
tor tured</w>
secur ing</w>
sch ul
hal ted</w>
det achment</w>
in ating</w>
eg al</w>
blu e-
vil lain</w>
ll c</w>
ac company</w>
ho st
kinder garten</w>
ing a</w>
hor ns</w>
ber mu
nel t</w>
z ach</w>
gener ic</w>
ton ic</w>
jen kins</w>
preci sion</w>
alger ia</w>
play wright</w>
transl ator</w>
consor tium</w>
beg ging</w>
in form</w>
ra ine</w>
d man</w>
an ne
on o</w>
it t</w>
scen ario</w>
wy er</w>
bu d</w>
sp ray</w>
c ation</w>
mi xes</w>
u ph
sub division</w>
hand ball</w>
pea king</w>
st i</w>
par a</w>
nas car</w>
sail or</w>
app lies</w>
crimin als</w>
urugu ay</w>
c itation</w>
ali ens</w>
over looking</w>
geor ge
k nelt</w>
mean time</w>
out skirts</w>
hein rich</w>
p aired</w>
wor m</w>
car av
day time</w>
as per
bi ous</w>
g is
an them</w>
18 31</w>
hum ph
1, 500</w>
ch ak
san tos</w>
1/ 2</w>
cru m
deser ted</w>
ar ta</w>
crow ds</w>
30 00</w>
se me
do dge</w>
mit ch</w>
nic a</w>
shoo ter</w>
as sing</w>
sub scri
doub ted</w>
det ached</w>
an alog</w>
ju ana</w>
a isle</w>
is ph
sc ary</w>
dre aming</w>
par aly
re sign</w>
eis en
ta iled</w>
im mortal</w>
em ir
mikha il</w>
glo b
cl ary</w>
ur o</w>
ru de</w>
high light</w>
sil va</w>
ine ff
sli ga</w>
j ess</w>
am ne
18 20</w>
appreci ation</w>
survey ed</w>
tre k</w>
han ding</w>
hi ro
h m</w>
follow -up</w>
resi ded</w>
isa bel</w>
challeng er</w>
fresh water</w>
la ke
we ars</w>
medi um-
reven ues</w>
the ori
var sity</w>
asp ir
side ways</w>
as ph
la ble</w>
du bai</w>
ther mo
minne apolis</w>
gibr altar</w>
it ating</w>
di xon</w>
net te</w>
per ez</w>
cum berland</w>
ski ing</w>
z ards</w>
v able</w>
soci ology</w>
princi p
light weight</w>
ar range</w>
am os</w>
ne um
cap tive</w>
ns w</w>
skele ton</w>
str al</w>
co cked</w>
stri ps</w>
vati can</w>
sp ear</w>
fi ber</w>
t on-
au burn</w>
sk ies</w>
swe eping</w>
bul ls</w>
sn akes</w>
win ding</w>
sli m</w>
elli ot</w>
quanti ties</w>
mo hammad</w>
no el</w>
yl on</w>
worl d-
bombar dment</w>
t ying</w>
de tention</w>
sa un
singer- songwriter</w>
geoff rey</w>
stu res</w>
shar ks</w>
guer ri
retri eve</w>
reali zation</w>
tric ks</w>
the ft</w>
war time</w>
dra in</w>
y un
to w</w>
ang eli
g im
si ber
188 0s</w>
defin ing</w>
n um</w>
mer a</w>
wes ley</w>
ti on-
puzz le</w>
ag ony</w>
la -
en ligh
cau tion</w>
in complete</w>
up grade</w>
aff ecting</w>
breath s</w>
ne o
val ence</w>
water shed</w>
d well
lin ux</w>
i zation</w>
e der</w>
wi de-
jor ge</w>
disgu st</w>
p g</w>
stre ssed</w>
employ ers</w>
collabor ative</w>
' what</w>
bl end</w>
guarante ed</w>
com be</w>
tu ition</w>
sid ney</w>
sc are</w>
oli thic</w>
gar nered</w>
scar let</w>
d re</w>
v enti
practic ing</w>
vol cano</w>
eg a</w>
glan ces</w>
advoc acy</w>
u fc</w>
ti ously</w>
ni st</w>
char ging</w>
183 3</w>
t fully</w>
lo ses</w>
mis e</w>
attribu tes</w>
pi us</w>
ak in</w>
hy a</w>
mun ster</w>
spi der-
in e-
inter fer
fl ashing</w>
zi er</w>
twi sting</w>
motiv ated</w>
at las</w>
1, 4
determin ing</w>
concep tion</w>
enco ded</w>
deteri or
si ves</w>
bu tter</w>
dd led</w>
pred ators</w>
- general</w>
al to</w>
as -
de u
sex ually</w>
jeff rey</w>
mollu sk</w>
is ers</w>
sac ked</w>
th on</w>
tw er
tom atoes</w>
rober to</w>
in form
fo ren
dep end</w>
dal ton</w>
sub marines</w>
ki ev</w>
inst inct</w>
ex o
mad agas
disclo sed</w>
4 0,000</w>
man i</w>
appren tic
an archi
bol ton</w>
in sight</w>
di aries</w>
le vi</w>
pen alties</w>
gar h</w>
low e</w>
differ ential</w>
k and
' an</w>
it unes</w>
ber nar
gro an</w>
per cy</w>
200 ,000</w>
ren tal</w>
ol y
run g</w>
proc essor</w>
descend ant</w>
r u</w>
par d</w>
tou ches</w>
as an</w>
in us</w>
bu gs</w>
adm ired</w>
pe ers</w>
he ed</w>
pain ters</w>
na h</w>
communi sts</w>
bed ford</w>
di sin
ho lo
ag e-
es on</w>
dor sal</w>
succee ding</w>
ret ali
w o</w>
sp ru
bal lad</w>
tribun al</w>
z able</w>
fif ty-
an ita</w>
kno x</w>
s lower</w>
ger ard</w>
schol arly</w>
econom ist</w>
escap es</w>
escor ted</w>
su ed</w>
mid st</w>
hypo the
spectac ular</w>
guatem ala</w>
ro gue</w>
be ans</w>
gui des</w>
ju de</w>
sli des</w>
s- up</w>
count ess</w>
desig ning</w>
3 6
in os</w>
squ e
c ism</w>
h m
helicop ters</w>
in mates</w>
mo tioned</w>
qu it
person alities</w>
discipl ines</w>
yugosla v</w>
f ing</w>
o sa</w>
f ters</w>
wh olly</w>
dam ages</w>
competi tor</w>
film maker</w>
at tained</w>
no ble
ul ing</w>
o logists</w>
plas ma</w>
un certainty</w>
cle ment</w>
archae ology</w>
hawai ian</w>
confron ted</w>
dial ects</w>
i van
sav es</w>
ro ckets</w>
la h
sp raw
flu t
alu min
emplo y</w>
s ory</w>
ch s</w>
ak ers</w>
constitu encies</w>
page ant</w>
bo tan
ari zed</w>
on to
publi shes</w>
quar ry</w>
leis ure</w>
tri ple
flo ated</w>
by r
teen agers</w>
gi fted</w>
mic key</w>
doub ts</w>
zom bie</w>
wit ches</w>
execu tives</w>
free zing</w>
ri l
un usually</w>
off s</w>
cr ashing</w>
hel l
deli vering</w>
om ar</w>
trini dad</w>
ha j
not orious</w>
acc ess
ag en</w>
lei p
p ga</w>
ko k</w>
proli fic</w>
f jor
en o</w>
cr un
illu sion</w>
invent ory</w>
fay ette</w>
telecommunic ations</w>
bo b
alpha bet</w>
dro wned</w>
stand ings</w>
consu l</w>
be i</w>
cro m
spir al</w>
dis ability</w>
mau ri
sp art
bo re
over time</w>
tex tile</w>
mess enger</w>
hem isph
park way</w>
arm our</w>
stran gers</w>
colli sion</w>
commerci als</w>
cu m</w>
pol ite</w>
j ade</w>
cre pt</w>
w inter
ni gh
high est-
sub mission</w>
posi t</w>
cow boy</w>
scrat ch</w>
institu tional</w>
ml b</w>
coo ked</w>
soverei gn
lis bon</w>
andro id</w>
sacram ento</w>
is lander</w>
t ants</w>
diff ers</w>
exam ining</w>
path way</w>
class rooms</w>
costum es</w>
spec ul
franc esco</w>
come back</w>
un ite</w>
se m
gri mac
christ ine</w>
confes sion</w>
o ke</w>
de ity</w>
ton nes</w>
contribu tor</w>
complic ations</w>
mad ness</w>
modi fications</w>
irri gation</w>
er n</w>
lo aned</w>
so aked</w>
radi us</w>
conven tions</w>
deut sche</w>
g led</w>
afgh an</w>
tibet an</w>
th ian</w>
or um</w>
ric ky</w>
mid land</w>
shor tened</w>
a the
c l</w>
sty led</w>
toyo ta</w>
or dering</w>
man ning</w>
fal con</w>
musc ular</w>
o g</w>
de fic
ten sions</w>
mat ch
attrac tions</w>
stev en
apo sto
r ound
cham ber
web ster</w>
bag h
smi th
el ders</w>
eu x</w>
kazakh stan</w>
s laughter</w>
om o</w>
ma pping</w>
gi or
gra bs</w>
prepar ations</w>
dra wer</w>
lim itations</w>
spar ks</w>
ar rows</w>
p tion</w>
town ships</w>
v at
intri gu
ro cke
ch ay
contem por
co her
escap ing</w>
dami en</w>
ab i
shi ver</w>
w anda</w>
out line</w>
patri arch</w>
affili ation</w>
isol ation</w>
x e</w>
ass assin</w>
sad dle</w>
fore wings</w>
fami li
by cidae</w>
li g
fre eman</w>
displac ed</w>
were wolf</w>
v om
har i</w>
effec tiveness</w>
mi ster</w>
gl er</w>
opti mi
tear ing</w>
n at</w>
el ess
lam ps</w>
ts man</w>
human ities</w>
brow ns</w>
autonom y</w>
need le</w>
mo tto</w>
goo se</w>
alig ned</w>
ceremoni al</w>
y elling</w>
be ef</w>
vi l</w>
im per
feat s</w>
ham as</w>
on ly
di ane</w>
cri es</w>
cra fts</w>
den is</w>
champ agne</w>
recru it</w>
cal ci
twenty- five</w>
trem end
low ering</w>
survi vor</w>
grow l</w>
suspec ts</w>
to sh</w>
le thal</w>
theat res</w>
ro th
di vin
ow ski</w>
continu ation</w>
ti ans</w>
cultiv ated</w>
p ts</w>
bi zar
coron ation</w>
su cking</w>
inc lined</w>
pe ters</w>
pac king</w>
n ami
x u
mon etary</w>
vin ey
thi as</w>
ver non</w>
bene dict</w>
frat ernity</w>
1 1-
break through</w>
du sty</w>
dar k-
resi sted</w>
pres ently</w>
rel ate</w>
mac y</w>
thom son</w>
recon c
pic nic</w>
acces sed</w>
n ay
s ach
ssi vely</w>
aci ds</w>
sinc lair</w>
budd ha</w>
de a</w>
un esco</w>
pres ses</w>
dist ress</w>
nin e-
tas mania</w>
break down</w>
re marks</w>
at p</w>
sch mid
grand ma</w>
confron tation</w>
ke st</w>
ble don</w>
patri cia</w>
hes itation</w>
el ong
suff olk</w>
ceram bycidae</w>
an ter
nav ar
pil lar</w>
i ber
ad dic
du plic
metho do
chen g</w>
i os</w>
d b</w>
war ming</w>
tra its</w>
char tered</w>
bb led</w>
w ages</w>
temp o</w>
twenty- four</w>
co .</w>
so s</w>
prosecu tor</w>
fac e-
institu tes</w>
k hal
steph anie</w>
bu zz</w>
f ow
ev ic
empha sized</w>
trad ers</w>
tra uma</w>
comfor tably</w>
o di
percu ssion</w>
devil s</w>
bre ach</w>
k .
be ams</w>
ar ise</w>
sp it</w>
mat ur
ven ge
recommend ation</w>
hi king</w>
fac ial</w>
spar hawk</w>
see ded</w>
super vised</w>
e te</w>
ong -
lar a</w>
rapha el</w>
s win
r inging</w>
care y</w>
landsc apes</w>
rh ine</w>
georg es</w>
fellow s</w>
kl ace</w>
1, 5
shir ley</w>
flexi ble</w>
ad er</w>
gro cery</w>
kar nat
two- story</w>
viol ations</w>
k amp
nec klace</w>
6. 5</w>
conte stant</w>
evolu tionary</w>
4 5
ou tr
ed ged</w>
sw ol
vir al</w>
ken dra</w>
0. 3</w>
te c</w>
10 2</w>
dom ains</w>
sovereign ty</w>
qu in</w>
18 25</w>
psychi c</w>
pre cur
gar dner</w>
l .
v ings</w>
con son
ho b
ici ans</w>
inno cence</w>
abun dant</w>
incorpor ate</w>
t anner</w>
d ing
ty pe
hon dur
shi va</w>
stab bed</w>
v re</w>
de af</w>
po ster</w>
wi pe</w>
aci on</w>
r ite</w>
ang led</w>
co ined</w>
d ash
cas ually</w>
pan thers</w>
her man</w>
chap man</w>
bec k
gal lo
wan dered</w>
imp lies</w>
itali a</w>
dit ch</w>
min is
ingredi ents</w>
inherit ance</w>
ge tic</w>
op tional</w>
tal lest</w>
gro s
jer ome</w>
madagas car</w>
li fts</w>
la i</w>
sum mary</w>
cam pu
simul ation</w>
boy d</w>
t essa</w>
inc ur
pac ed</w>
ch as
tu g</w>
my an
1. 0</w>
at ter</w>
ca stro</w>
han a</w>
win ked</w>
hy ster
jud ging</w>
memor able</w>
20 20</w>
pr one</w>
grand daughter</w>
tan e</w>
di m
u re
re make</w>
mar rying</w>
bor is</w>
om aha</w>
un common</w>
inc enti
boli via</w>
li ti
mahar ashtra</w>
ri ots</w>
pi a</w>
stati on
correc ted</w>
dw elling</w>
l t.</w>
emplo ys</w>
su z
tor ch</w>
davi dson</w>
advoc ates</w>
vent ures</w>
tur ks</w>
at orial</w>
ad her
eter nity</w>
me gan</w>
tur ally</w>
1, 2
symbo lic</w>
t ford</w>
j en</w>
trans actions</w>
sco ts</w>
teamm ates</w>
y ar</w>
accep ts</w>
evacu ated</w>
o ch</w>
h t</w>
ever -
10 4</w>
educ ator</w>
leban ese</w>
man ship</w>
sm all
wa x</w>
w l</w>
c apped</w>
el sen</w>
ma ori</w>
mar l
sna ils</w>
chat eau</w>
inser ted</w>
mo d
f lip</w>
inc y</w>
resi stant</w>
fan ta
con grat
em a</w>
war den</w>
wat er-
sand ra</w>
tane ous</w>
en suring</w>
al do</w>
le en</w>
sit com</w>
ka h
peas ants</w>
en za</w>
a an</w>
re covering</w>
wit t</w>
nor wich</w>
sand ers</w>
ad dressing</w>
tro l
re ef</w>
form es
cu pped</w>
f ade</w>
cur ator</w>
blo s
matt ress</w>
fitz gerald</w>
tanz ania</w>
i ster</w>
aw ned</w>
stro kes</w>
migr ated</w>
cuis ine</w>
formes family</w>
car b
f ond</w>
fe at</w>
so lem
dis cover
cat alog</w>
rec la
vie w
car men</w>
vic ar</w>
y ama</w>
le ver
chen nai</w>
screen writer</w>
o ons</w>
ch ased</w>
on o
pe tty</w>
sa urus</w>
h ears</w>
ti res</w>
tel ugu</w>
only include</w>
e t-
t orial</w>
b ley</w>
w ren
ou tri
arm ament</w>
bin ary</w>
el vis</w>
18 21</w>
swol len</w>
ro ared</w>
ade l</w>
3 3
in scriptions</w>
in filtr
co leman</w>
pra yers</w>
jen na</w>
chronic les</w>
a wa
p ounded</w>
em e</w>
prote sters</w>
advan cement</w>
ju da
dd in</w>
cla yton</w>
am u
bu si
autom o
ced es</w>
g yp
disc oun
atmo spheric</w>
m vp</w>
al isation</w>
dar ren</w>
0. 2</w>
sp illed</w>
stri ke
photo graphic</w>
analy st</w>
se mic
frequ encies</w>
kni ves</w>
50 th</w>
cli p</w>
ven us</w>
expl or
gr ac
boo st</w>
bom bay</w>
18 28</w>
scram bled</w>
brit tany</w>
forti fied</w>
b ital</w>
es que</w>
sel ective</w>
elec torate</w>
na omi</w>
motor way</w>
compo site</w>
ha iti</w>
wor cester</w>
foo lish</w>
purch asing</w>
comment ator</w>
ro meo</w>
si on-
mo bility</w>
sne ak</w>
mo an</w>
im port</w>
enjo y
obli vi
clut ched</w>
karnat aka</w>
at oms</w>
di pped</w>
em ble
gre eks</w>
wil dly</w>
sto re
hard t</w>
fren ch-
craw l</w>
wim bledon</w>
r ack</w>
f ry</w>
it u
reli ed</w>
bul ary</w>
st or</w>
bre tt</w>
aqu atic</w>
cultiv ation</w>
am ine</w>
mi k
spo t
promp tly</w>
stir red</w>
den burg</w>
camp ing</w>
commis sions</w>
boun ced</w>
accu sations</w>
phan tom</w>
synago gue</w>
y ell</w>
g lin
gand hi</w>
liv ing
ag ar</w>
dis covering</w>
14 -
sket ches</w>
n ail</w>
ra ises</w>
mead ow</w>
l ity</w>
ch ero
peri meter</w>
aw i</w>
astronom y</w>
i bra
x x</w>
ol ed</w>
ad ditions</w>
z u</w>
to ire</w>
enti n</w>
compar e</w>
dol f</w>
rep aired</w>
sop hom
finan ced</w>
free ze</w>
proph ec
at e-
ati vity</w>
empha si
el bows</w>
man o
pla u
sh one</w>
pr as
wan dering</w>
emer son</w>
sha dow
docum entation</w>
streng then</w>
inter red</w>
celebr ating</w>
ensu ing</w>
compli ance</w>
dri ll</w>
defen ses</w>
flu te</w>
back pack</w>
now ad
you d</w>
til la</w>
marri ages</w>
grun ted</w>
trigg ered</w>
umbre lla</w>
p its</w>
sc ars</w>
est onian</w>
mer cen
ant i</w>
ax e</w>
naz is</w>
i to</w>
18 24</w>
grou ped</w>
collec tively</w>
car do</w>
be dro
pas sport</w>
sho res</w>
resemb les</w>
george town</w>
pro se</w>
ram p</w>
g ore</w>
de posit</w>
ac ul
de ton
con cu
cl ash</w>
ext ant</w>
knuck les</w>
gr an</w>
10 0
first- team</w>
j ian</w>
eth no
imag ery</w>
c s
se tte</w>
c low
4 0-
new sc
de t</w>
con flu
line age</w>
nowad ays</w>
m age</w>
europe ans</w>
scen ic</w>
down stream</w>
negoti ate</w>
mh z</w>
spati al</w>
air ports</w>
hur ts</w>
imp lied</w>
annex ed</w>
sti cking</w>
vo d
posse ssions</w>
ancest or</w>
di r</w>
duc ked</w>
broad ly</w>
om in
fil ing</w>
cy to
bon nie</w>
liqu or</w>
kni gh
spons ors</w>
lis le</w>
lu c</w>
dre amed</w>
dis appearance</w>
b ach
mo ist
fer tili
mini ature</w>
pat ro
mut ations</w>
i x
jo kes</w>
hel sin
win chester</w>
4 50</w>
co lo
ang ri
fe ud</w>
1, 6
counter part</w>
u tter</w>
su b</w>
mas cot</w>
fashi oned</w>
cal lum</w>
ben ny</w>
overwhel med</w>
con fis
18 29</w>
i k</w>
tap es</w>
dark ened</w>
financi ally</w>
saf er</w>
fla v
frag ile</w>
mar ty</w>
stra w</w>
ti vi
ment -
sh it
ap prehen
mar es</w>
negoti ated</w>
ta vern</w>
or d</w>
is hi
tr out</w>
2 d</w>
mor se</w>
inv ite</w>
q atar</w>
ac s</w>
ric an</w>
dec ay</w>
teles cope</w>
sophom ore</w>
experi encing</w>
t asked</w>
ali zes</w>
s late</w>
r pm</w>
w ong</w>
an at
help less</w>
adi c</w>
state wide</w>
unci ation</w>
j ing
w oul
fre aking</w>
r amp
ul f</w>
nutri tion</w>
inev itable</w>
precipit ation</w>
n il
ac knowledge</w>
ben son</w>
desi rable</w>
c **
v fl</w>
mo or
ki stan</w>
ant arc
pat rons</w>
so ils</w>
part ner
ing rad</w>
leip zig</w>
log ging</w>
liber als</w>
5. 5</w>
satis fy</w>
myan mar</w>
el isa
her al
acci dents</w>
bever ly</w>
x ia</w>
arch diocese</w>
asse ssed</w>
clu sters</w>
sp ra
lan tern</w>
bu ster</w>
cop i
1. 9</w>
peter son</w>
narr ator</w>
bo sni
grand children</w>
kir a</w>
beng ali</w>
dono van</w>
ad in</w>
swim mer</w>
enab les</w>
paralym pics</w>
co ats</w>
rou ge</w>
where by</w>
coordin ation</w>
descrip tions</w>
le one</w>
le ver</w>
pro ving</w>
sau ce</w>
helsin ki</w>
18 10</w>
pot ent</w>
c licked</w>
constan tine</w>
gl ass
matthe ws</w>
rei ch
am ended</w>
mat tered</w>
memo ir</w>
rel ates</w>
dioc es
edit or
winc ed</w>
sad ly</w>
psychi atric</w>
ti er
saf e
phil harmonic</w>
war dly</w>
zz ie</w>
asser ted</w>
c** k</w>
k ly</w>
ma the
gener ator</w>
tun es</w>
in dul
sub jected</w>
k lu
f oul</w>
10 ,
cancel ed</w>
supple ment</w>
mon ter
alumin um</w>
it ative</w>
le vy</w>
ty re</w>
posi tively</w>
trans action</w>
passi onate</w>
c as</w>
al fon
be et
ran dom
us d</w>
refuge e</w>
dum b</w>
ac ha
sen ed</w>
p ablo</w>
sig ni
belar us</w>
a sted</w>
j -
exp ired</w>
wy att</w>
chem ist</w>
di sm
cu bs</w>
s ly</w>
joy ce</w>
lifel ong</w>
czecho slovakia</w>
er ection</w>
ec a</w>
18 13</w>
gar bage</w>
anten na</w>
ch ed
gr ace
cour tes
pione ering</w>
st ool</w>
thi ef</w>
lu cia</w>
speci fication</w>
west ward</w>
dre y</w>
leap t</w>
hi e</w>
by ron</w>
clar ence</w>
ric ally</w>
elli p
whisp ering</w>
im mer
sm s</w>
ar ches</w>
uni fication</w>
fu sel
appro ve</w>
m uni
out let</w>
sha des</w>
adol f</w>
h um</w>
con stell
sur ance</w>
ide ology</w>
ha irs</w>
de grad
ran ce</w>
necess ity</w>
post p
a stri
k ou
min ton</w>
inten tionally</w>
cli ffs</w>
cec il</w>
pipel ine</w>
ori ent
week ends</w>
brother hood</w>
t ability</w>
tre y</w>
emer itus</w>
es hip</w>
du et</w>
fac to</w>
spar ked</w>
coff in</w>
o de
ch rome</w>
nati vely</w>
vis a</w>
g t
councill ors</w>
sp ices</w>
t all
z el</w>
z ach
ur ban
ju ri
rob bie</w>
jack sonville</w>
it ch</w>
mel ting</w>
miner als</w>
ri sen</w>
sp in-
inten d</w>
exclu ding</w>
bu cket</w>
sing ular</w>
sup pressed</w>
ful ler</w>
shot gun</w>
folkl ore</w>
hast ings</w>
w al</w>
si o</w>
po ts</w>
repe ti
cade t</w>
g ered</w>
conveni ence</w>
p neum
com b</w>
ju dy</w>
str ad
sk aya</w>
dom en</w>
stran gely</w>
salv ation</w>
explic it</w>
doo m</w>
help ful</w>
ti te</w>
go at</w>
ber ra</w>
189 0s</w>
b ind</w>
proph et</w>
war a</w>
an u</w>
ho e</w>
wi i</w>
dest inations</w>
cre di
fac tions</w>
ble ssing</w>
trou bles</w>
par i
ca ir
listen ers</w>
o aks</w>
vi sta</w>
bau m</w>
commemor ate</w>
mistak en</w>
posthum ously</w>
t oul
appoin tments</w>
inj ection</w>
invent or</w>
ti ary</w>
flo yd</w>
river side</w>
stel lar</w>
ti ers</w>
co ch
acqu iring</w>
l are</w>
fi ona</w>
mis erable</w>
mer ge</w>
t les</w>
de e
gl am
anthropo logy</w>
continu ity</w>
. 2
as her</w>
deva stated</w>
dispos al</w>
la v</w>
autom ated</w>
gigg led</w>
r ama</w>
y ear
po dium</w>
sou ther
docum ent
expe di
se d
jun c
am ino</w>
wheel chair</w>
transpar ent</w>
qu ir
squ ea
dani els</w>
n m</w>
off spring</w>
ss ly</w>
bu r</w>
ron nie</w>
tim er</w>
dig nity</w>
demonstr ations</w>
stal in</w>
3 7
star es</w>
philipp e</w>
montene gro</w>
st one
de o</w>
ai ming</w>
declar ing</w>
z ations</w>
as tically</w>
no bles</w>
pi es</w>
youn g
victori ous</w>
pac ks</w>
bri ghtly</w>
din o</w>
announ cing</w>
tren ds</w>
reas oning</w>
f ang</w>
fl ats</w>
ham mond</w>
lind say</w>
rep lies</w>
por no
prob able</w>
at er
ex ams</w>
refu sal</w>
hi atus</w>
do va</w>
cre ep
over saw</w>
chur ch
lat via</w>
1, 7
archi pel
c m
el f</w>
me e</w>
mo ths</w>
ch ari
ani el</w>
particip ant</w>
licen sing</w>
ex eter</w>
survi ves</w>
post- war</w>
it er</w>
em bro
ur gent</w>
wa ke
compar ing</w>
pione ers</w>
cep hal
premi um</w>
v ague</w>
u b
cambo dia</w>
ic e-
hy drau
def ault</w>
incorpor ates</w>
hier archy</w>
unanim ous</w>
dolph ins</w>
be au</w>
stri pes</w>
nucle us</w>
murder er</w>
accur ately</w>
u sa
inc ap
tho s</w>
re- released</w>
accoun ted</w>
commo dore</w>
v c</w>
ac cred
mad ras</w>
north um
pastor al</w>
cor rupt</w>
bat sman</w>
appren tice</w>
blow s</w>
vis count</w>
hi ro</w>
ad joining</w>
constitu ent</w>
mar kings</w>
kno b</w>
desp air</w>
albi on</w>
19 th-century</w>
bish op
acri tic</w>
sli ck</w>
hy der
five- year</w>
wor ms</w>
vel i
her mann</w>
campu ses</w>
p ter
sub merged</w>
encomp asses</w>
tu ri
s sel
de mise</w>
car i
2. 2</w>
botan ical</w>
en chan
co ven
incorpor ating</w>
r ha
z or
fire place</w>
re actor</w>
18 26</w>
org asm</w>
show case</w>
alber to</w>
gri pping</w>
domin ance</w>
c b</w>
ti ff
out comes</w>
2. 1</w>
occup ying</w>
tis su
snat ched</w>
mb les</w>
- i</w>
n ly</w>
lo y</w>
the s
ma m</w>
sla vic</w>
aff ects</w>
stret ches</w>
automo tive</w>
se in</w>
ini ans</w>
???? ?????</w>
m t
li l</w>
ack ers</w>
destroy ers</w>
ra k
tr ous
mead ows</w>
telev ised</w>
tur tle</w>
pr ou
in ability</w>
stran ds</w>
angri ly</w>
v ass
k ry
stra w
hard core</w>
stab les</w>
treat ments</w>
ap point</w>
ap ex</w>
cur b</w>
span ning</w>
descen ding</w>
acqu ain
re s
regi on
18 18</w>
sen sing</w>
fore stry</w>
lam b</w>
barri ers</w>
strength ened</w>
y ep</w>
the a</w>
la sts</w>
tr on</w>
tim acy</w>
tum or</w>
don ation</w>
tang led</w>
sti g
dre ad
viol ently</w>
retri eved</w>
antarc tica</w>
k ras
li ch
op ed</w>
ju pit
ran a</w>
bar rett</w>
key boards</w>
sensi tivity</w>
v all
di ce</w>
se iz
em braced</w>
rot ating</w>
e as
re side</w>
pro pon
cam den</w>
coordin ated</w>
dod gers</w>
par ag
fa in
ann ers</w>
sen su
parti tion</w>
coordin ate</w>
tole do</w>
me tic</w>
resid ences</w>
quarter finals</w>
lib ya</w>
under go</w>
truste e</w>
exp on
aposto lic</w>
o le
9 0
am ous</w>
com a</w>
pu t
nor dic</w>
gra d</w>
gar de</w>
passi ve</w>
log istics</w>
dar ted</w>
succ esses</w>
shel ves</w>
50 00</w>
ti des</w>
ab bo
nic ar
s ke</w>
h ex
er ings</w>
car r</w>
bar ked</w>
portra yal</w>
judi ci
ver t</w>
sheri dan</w>
mccar thy</w>
kash mir</w>
schmid t</w>
el et</w>
me a</w>
comb ines</w>
ro ch
fl ung</w>
180 6</w>
br ag
ang o</w>
bur nett</w>
incar nation</w>
du dley</w>
our se</w>
predic table</w>
gym nas
s ant</w>
cir ca</w>
re ich</w>
colom bian</w>
scan ning</w>
th o</w>
pe ac
ty r
patter son</w>
proces sed</w>
re gina</w>
pap ua</w>
contra dic
con fin
ser y</w>
don nell</w>
b mw</w>
be aver</w>
sm all-
f ading</w>
ten or</w>
fr inge</w>
stri es</w>
fe eds</w>
dis sip
disc ar
bry ant</w>
shipy ard</w>
r aged</w>
dar t</w>
back er</w>
quarter ly</w>
snar led</w>
no tation</w>
ho stage</w>
nor mandy</w>
outri ght</w>
la bs</w>
co- wrote</w>
ros se</w>
r hi
to ss</w>
cu shi
keep ers</w>
moham med</w>
deriv ative</w>
reinfor cements</w>
pu shes</w>
tur bo
spi ders</w>
theo logi
respon ding</w>
scre wed</w>
cyc list</w>
oper as</w>
or bital</w>
a sis</w>
p ays</w>
z agre
ad diction</w>
do o</w>
ob servers</w>
17 0</w>
jacob s</w>
resu me</w>
re alism</w>
ro x
lum ber</w>
re jection</w>
co dy</w>
hu mid</w>
2. 4</w>
haus en</w>
spokes man</w>
nation ale</w>
si m</w>
rit uals</w>
her b</w>
persu ade</w>
am shire</w>
cr on
ben ding</w>
clut ching</w>
z burg</w>
pro found</w>
fle eing</w>
eli za</w>
voc ational</w>
' the</w>
re spir
ab domen</w>
bra kes</w>
5 0-
al on
bro m
air plane</w>
h on</w>
bul le
k ob
ti dal</w>
doc ks</w>
spe eches</w>
arab ian</w>
t ad
prepar atory</w>
organiz ational</w>
ber ries</w>
fre d
ba ha</w>
stras se</w>
partner ships</w>
st ina</w>
10 3</w>
prohi bition</w>
emerg ence</w>
r ory</w>
du mped</w>
ful fill</w>
phenom ena</w>
ta y
pu mping</w>
al ps</w>
10 8</w>
under world</w>
alle gi
loren zo</w>
reper toire</w>
boul der</w>
dri pping</w>
c ass</w>
el ic
wh ale</w>
compar ative</w>
eclip se</w>
car rie</w>
wa sted</w>
hor ace</w>
wheel er</w>
gossi p</w>
fa st-
180 3</w>
i f
supervis or</w>
di o
cru de</w>
mir rors</w>
kic ks</w>
meth yl
flu sh</w>
sum mer
moder n-
xi ii</w>
contrac tor</w>
mck in
s aga</w>
clo ses</w>
mer cedes</w>
p as</w>
dec lining</w>
conflu ence</w>
g s
b ays</w>
ec ology</w>
re formation</w>
at titudes</w>
gre n</w>
tran sp
pun ished</w>
rapi ds</w>
shei kh</w>
bizar re</w>
r era</w>
v agu
tom as</w>
basi lica</w>
crou ched</w>
disc o</w>
wait ress</w>
- off</w>
mid west</w>
b ati
no t-
fer nandez</w>
ail ing</w>
12 ,
brow n
' a</w>
un locked</w>
is ite</w>
met ap
chec ks</w>
s qui
1, 8
fusel age</w>
up stream</w>
rag ged</w>
zom bies</w>
bo died</w>
dis ser
fl ynn</w>
hart ford</w>
in sufficient</w>
un named</w>
zi p</w>
s well</w>
z ack</w>
fire arms</w>
con science</w>
vi kings</w>
mel anie</w>
cand les</w>
k hor
rec ap
bar ack</w>
compe tes</w>
slu mped</w>
ne gro</w>
mu st
ni elsen</w>
how e</w>
gal ac
p am</w>
so dium</w>
expres sing</w>
bra ke</w>
archipel ago</w>
con den
ver onica</w>
ter esa</w>
180 1</w>
sha h
under wear</w>
- in</w>
u c</w>
ch ment</w>
sp at</w>
san ds</w>
eli jah</w>
color ful</w>
under way</w>
pass ages</w>
volunte ered</w>
op tim
bo l</w>
pri me
cu e</w>
geor g</w>
comman der
bron cos</w>
concentr ations</w>
ext inc
e po
ha bits</w>
adv ent</w>
astronom ical</w>
recep tors</w>
ex iled</w>
sel fish</w>
cor ner
secre tari
colum nist</w>
o c</w>
br am
hu ang</w>
cla ve</w>
mul ler</w>
pap a</w>
cast e</w>
k oo
deb ts</w>
recru iting</w>
concer to</w>
paro dy</w>
un necessary</w>
ju bi
fl int</w>
del ays</w>
13 5</w>
re joined</w>
confir mation</w>
in tel</w>
and hra</w>
speci alizing</w>
bull dogs</w>
congre ssman</w>
emin ent</w>
con front</w>
en dow
2. 3</w>
pam ph
po ta
bat ch</w>
than e</w>
conce aled</w>
ac o
je suit</w>
bull shit</w>
ingh amshire</w>
embarr assment</w>
c bc</w>
tr in
cand le</w>
out- of-
anatom y</w>
chero kee</w>
un expec
sor ted</w>
syndic ated</w>
plan ting</w>
d- up</w>
glu co
clam ation</w>
stub born</w>
av i</w>
sou l
molecu le</w>
re yes</w>
ru sted</w>
gr a</w>
fin alists</w>
gen .</w>
resemb lance</w>
n ingham</w>
re acted</w>
ru sty</w>
moder n
floo ds</w>
cassi dy</w>
e g</w>
pro sper
dec lare</w>
bri um</w>
demonstr ating</w>
d l</w>
f cc</w>
qu il
exce ed</w>
pu ri
opti mis
on set</w>
ma i</w>
co vent
fore sted</w>
anch ored</w>
r bi</w>
est a</w>
ero tic</w>
gymnas tics</w>
pa c</w>
13 -
horri fied</w>
enthusi astic</w>
ev ich</w>
gen ome</w>
enter taining</w>
col lo
carto ons</w>
as sure</w>
ex ports</w>
ge ology</w>
can berra</w>
asse ss</w>
ballo on</w>
p li
en ko</w>
ati le</w>
soft ball</w>
ni pple</w>
bi -
ti bet</w>
zagre b</w>
ste ele</w>
0. 4</w>
elan dic</w>
. 3
re de
ro ver</w>
sp ill</w>
sho re
kle in</w>
robo ts</w>
sp ears</w>
pat ches</w>
self- titled</w>
ex position</w>
rac ism</w>
s our</w>
fle x</w>
sens ors</w>
gl omer
10 6</w>
auth entic
wic ket</w>
hu i</w>
develop mental</w>
fro wning</w>
tur f</w>
margin al</w>
al ison</w>
lad en</w>
sh ea
ero sion</w>
circu its</w>
l al</w>
yo ga</w>
mu tation</w>
dis abilities</w>
foo th
comple ment</w>
a ston</w>
devo tion</w>
depos ited</w>
cl ung</w>
sm ashed</w>
cur ls</w>
tissu es</w>
o ids</w>
reduc es</w>
cal cu
mag dal
editor -in-chief</w>
ou sed</w>
ab duc
bli ss</w>
f us</w>
r ation</w>
pla in
nor ther
occupi es</w>
o is</w>
lun d</w>
bermu da</w>
2 4th</w>
ski p</w>
c ai
dre sden</w>
lim p</w>
jas mine</w>
hass an</w>
in take</w>
hor n
aur ora</w>
s q
ro cked</w>
con j
equi li
confes sed</w>
s abo
. the</w>
mid lands</w>
30 th</w>
wen dy</w>
infl ation</w>
y in</w>
mal ay</w>
lati tude</w>
implic ations</w>
u tes</w>
di az</w>
swe ater</w>
hyder abad</w>
unexpec tedly</w>
lo tus</w>
gr aci
ev ille</w>
bloo m</w>
cell o</w>
a int</w>
re warded</w>
cu p
sm ells</w>
cru s
tari ly</w>
pseu do
forti fications</w>
sla v</w>
modi fication</w>
comp ly</w>
3. 3</w>
er mo</w>
ar lington</w>
rob bery</w>
i th
k w
se tt</w>
nor m</w>
w r</w>
ir ving</w>
ab sur
bri ght
met acritic</w>
fear ing</w>
ne wark</w>
em ili
whi stle</w>
inter val</w>
compe ten
dischar ged</w>
some day</w>
sho ve</w>
vin tage</w>
individu ally</w>
ic elandic</w>
gre ens</w>
lam bert</w>
no ck</w>
nan o
missi oned</w>
malay alam</w>
1 11</w>
ob struc
tex t-
wea ther
install ations</w>
nor d
spider- man</w>
me ga
prof itable</w>
blin king</w>
adju st
excav ations</w>
bric ks</w>
7 0s</w>
ur ai</w>
rhyth mic</w>
c ents</w>
bu shes</w>
sp ill
fu sed</w>
air ways</w>
179 3</w>
substan ces</w>
school ing</w>
o ka</w>
gi use
ten sed</w>
tremend ous</w>
am an
18 16</w>
p l</w>
18 27</w>
ban ker</w>
cru shing</w>
archi e</w>
pol ls</w>
bal li
avi v</w>
m k</w>
ta k</w>
ko z
mar t</w>
pra ying</w>
domini on</w>
az ar</w>
ut c</w>
mu g</w>
fre ed
decom missioned</w>
we e</w>
ob serving</w>
renew able</w>
p act</w>
enti c</w>
stiff ened</w>
adverti sements</w>
glou cester</w>
vi king</w>
pra yed</w>
kow ski</w>
rit es</w>
blu ff</w>
libr arian</w>
lac rosse</w>
leop old</w>
silic on</w>
p lots</w>
sc outing</w>
abun dance</w>
cap ital
jeal ousy</w>
p u</w>
f ec
ad just</w>
ca kes</w>
ton a</w>
counter parts</w>
moist ure</w>
ur ging</w>
joh annes</w>
apo calyp
middle sex</w>
synthe si
a aa</w>
t ati
tri angular</w>
bran ding</w>
t d</w>
ur u</w>
ap er
je ep</w>
valen cia</w>
covent ry</w>
2 20</w>
ali an</w>
christ ina</w>
o e</w>
pe e</w>
hel len
fl atten
1, 9
bo log
simil arity</w>
woo dy</w>
lun a</w>
en ary</w>
bra ins</w>
ku wait</w>
cano e</w>
bar ker</w>
fran kie</w>
immen se</w>
ro ma</w>
no stri
u sh
augu sta</w>
algorith ms</w>
cn n</w>
ev elyn</w>
8 0s</w>
ang ola</w>
- long</w>
ar d
at om</w>
ari os</w>
uz be
poe tic</w>
v icious</w>
9 9.
in su
min d
ner y</w>
bure au
fundam ent
ful l
trans -
nation alism</w>
sent in
yn es</w>
cock pit</w>
adm its</w>
st in
ci on</w>
long- time</w>
best- selling</w>
pecu liar</w>
pav ement</w>
th ing
ran dall</w>
med itation</w>
wrest lers</w>
displac ement</w>
ibra him</w>
beet les</w>
er os</w>
war wick</w>
fo il</w>
ri on</w>
ec ole</w>
de sk
stre am
trag ic</w>
so ver</w>
merchan di
om ni
co co
pl ural</w>
kol kata</w>
rah man</w>
el ton</w>
sur -
sa vi
dis appearing</w>
sto w</w>
jupit er</w>
v aul
ram on</w>
g dp</w>
ab y
tr on
si d</w>
int ric
mel t</w>
grand parents</w>
ferr ari</w>
se als</w>
pat ents</w>
fisher ies</w>
calcu tta</w>
tur in</w>
aff e</w>
un covered</w>
ff er</w>
pri ory</w>
ste f
ani ans</w>
rail s</w>
prosper ity</w>
se duc
hal lo
play- off</w>
fl our</w>
trans fers</w>
rid den</w>
nur sery</w>
hay den</w>
inhi bit
gujar at</w>
t ational</w>
gene tics</w>
in tra
je e</w>
may er</w>
gui ding</w>
stun ning</w>
vik tor</w>
an twer
em pi
co te</w>
ru st</w>
af ford
sli ce</w>
pil grim
st ac
se man
assi sting</w>
s ler</w>
an om
l b</w>
cre scent</w>
care er-
y ang
ma fia</w>
ai den</w>
ber ing</w>
hun ted</w>
pharmaceu tical</w>
j ed
buil ders</w>
justi fied</w>
de pri
we ston</w>
du n</w>
ami a</w>
ga za</w>
h c</w>
z em
sac ks</w>
clas sm
pseudon ym</w>
c lock
4 7
car lisle</w>
ex pose</w>
preten ded</w>
juda ism</w>
ari sto
ami d
sha wn</w>
down ward</w>
c is</w>
co li
mor tar</w>
fas cist</w>
tab let</w>
bun dle</w>
count less</w>
par don</w>
car lton</w>
10 9</w>
willi s</w>
ches hire</w>
seme ster</w>
x en
bro ck</w>
sle eves</w>
18 19</w>
sen sor</w>
bad minton</w>
decor ations</w>
split ting</w>
oun der</w>
187 0s</w>
stron gh
b bling</w>
k ha</w>
ash ore</w>
12 8</w>
ul tr
twi light</w>
memo irs</w>
ar tem
alter natively</w>
po sting</w>
christi e</w>
toler ance</w>
propor tional</w>
ol l</w>
betra yal</w>
dispat ched</w>
l ach
wi ping</w>
ever s</w>
scra pped</w>
w ary</w>
ri g
lea h</w>
180 9</w>
runner s-up</w>
tw ood</w>
bureau cr
m ell
ori o</w>
ari d</w>
jo ckey</w>
cam eo</w>
ok in
hi ck
inter vals</w>
cru sad
n ing
1 15</w>
tre mbled</w>
targe ting</w>
pear son</w>
de xter</w>
ne -
e bl
eu gen
in scribed</w>
com pression</w>
min orities</w>
sol itary</w>
auth entic</w>
8. 5</w>
c ds</w>
3 8
el ise</w>
vi able</w>
accomp lish</w>
ver dict</w>
lu d
gu an
ar ya</w>
ru b</w>
um i</w>
jun g</w>
privile ge</w>
mar x</w>
ni an</w>
ar k
occurren ce</w>
minis eries</w>
inv ari
non sense</w>
cryst als</w>
co ke</w>
so cks</w>
vin es</w>
v ain</w>
ve t
sp ans</w>
spec tro
infer ior</w>
transfer ring</w>
la zy</w>
dis man
viol a</w>
180 8</w>
st oo
con stable</w>
pag an</w>
calci um</w>
do ck
disgu ise</w>
c ag
gar den
aero space</w>
mar ian</w>
ash amed</w>
compe tent</w>
3. 0</w>
gra v
flar ed</w>
pre valent</w>
cu be</w>
evacu ation</w>
re build</w>
sp erson</w>
no de</w>
tran sc
bit es</w>
sla p</w>
18 22</w>
promo tes</w>
poly nom
heim er</w>
per secution</w>
may o</w>
geno cide</w>
s amp
er y
mou ths</w>
cool er</w>
introduc es</w>
ru dolf</w>
laun dry</w>
medic ation</w>
ul i</w>
giuse ppe</w>
pi vo
ob sole
collec tors</w>
tu re
gl orious</w>
non profit</w>
un stable</w>
cy pri
jubi lee</w>
re building</w>
ra ins</w>
ster eo</w>
smar t
haz el</w>
smir k</w>
y az
el ope</w>
comp lim
enz ym
l ena</w>
proces sion</w>
her ed
du el</w>
can opy</w>
euro pa</w>
import antly</w>
pit ching</w>
sim mons</w>
dev ast
nol an</w>
soci ally</w>
mer cer</w>
expen dit
m ast</w>
i rene</w>
is les</w>
trac tion</w>
persi stent</w>
har dened</w>
ak h</w>
categ ori
bren nan</w>
le v</w>
0. 6</w>
y emen</w>
pre historic</w>
spo on</w>
teh ran</w>
18 17</w>
techni c</w>
mathemati cian</w>
puzz led</w>
lon ge
stag gered</w>
vo ter</w>
gree ting</w>
parach ute</w>
en di
ly ric</w>
mongo lia</w>
perpe tr
2 2nd</w>
la e</w>
dar ed</w>
[...]
